{"version": "1.0", "truncation": null, "padding": null, "added_tokens": [{"id": 128361, "content": "<|endoftext|>", "single_word": false, "lstrip": false, "rstrip": false, "normalized": false, "special": true}, {"id": 128362, "content": "<|im_start|>", "single_word": false, "lstrip": false, "rstrip": false, "normalized": false, "special": true}, {"id": 128363, "content": "<|im_end|>", "single_word": false, "lstrip": false, "rstrip": false, "normalized": false, "special": true}, {"id": 128364, "content": "<|object_ref_start|>", "normalized": false, "lstrip": false, "rstrip": false, "single_word": false, "special": true}, {"id": 128365, "content": "<|object_ref_end|>", "normalized": false, "lstrip": false, "rstrip": false, "single_word": false, "special": true}, {"id": 128366, "content": "<|box_start|>", "normalized": false, "lstrip": false, "rstrip": false, "single_word": false, "special": true}, {"id": 128367, "content": "<|box_end|>", "normalized": false, "lstrip": false, "rstrip": false, "single_word": false, "special": true}, {"id": 128368, "content": "<|quad_start|>", "normalized": false, "lstrip": false, "rstrip": false, "single_word": false, "special": true}, {"id": 128369, "content": "<|quad_end|>", "normalized": false, "lstrip": false, "rstrip": false, "single_word": false, "special": true}, {"id": 128370, "content": "<|vision_start|>", "normalized": false, "lstrip": false, "rstrip": false, "single_word": false, "special": true}, {"id": 128371, "content": "<|vision_end|>", "normalized": false, "lstrip": false, "rstrip": false, "single_word": false, "special": true}, {"id": 128372, "content": "<|vision_pad|>", "normalized": false, "lstrip": false, "rstrip": false, "single_word": false, "special": true}, {"id": 128373, "content": "<|image_pad|>", "normalized": false, "lstrip": false, "rstrip": false, "single_word": false, "special": true}, {"id": 128374, "content": "<|video_pad|>", "normalized": false, "lstrip": false, "rstrip": false, "single_word": false, "special": true}, {"id": 128375, "content": "<tool_call>", "lstrip": false, "normalized": false, "rstrip": false, "single_word": false, "special": false}, {"id": 128376, "content": "</tool_call>", "lstrip": false, "normalized": false, "rstrip": false, "single_word": false, "special": false}, {"id": 128377, "content": "<|fim_prefix|>", "lstrip": false, "normalized": false, "rstrip": false, "single_word": false, "special": false}, {"id": 128378, "content": "<|fim_middle|>", "lstrip": false, "normalized": false, "rstrip": false, "single_word": false, "special": false}, {"id": 128379, "content": "<|fim_suffix|>", "lstrip": false, "normalized": false, "rstrip": false, "single_word": false, "special": false}, {"id": 128380, "content": "<|fim_pad|>", "lstrip": false, "normalized": false, "rstrip": false, "single_word": false, "special": false}, {"id": 128381, "content": "<|repo_name|>", "lstrip": false, "normalized": false, "rstrip": false, "single_word": false, "special": false}, {"id": 128382, "content": "<|file_sep|>", "lstrip": false, "normalized": false, "rstrip": false, "single_word": false, "special": false}, {"id": 128383, "content": "<tool_response>", "single_word": false, "lstrip": false, "rstrip": false, "normalized": false, "special": false}, {"id": 128384, "content": "</tool_response>", "single_word": false, "lstrip": false, "rstrip": false, "normalized": false, "special": false}, {"id": 128385, "content": "<think>", "single_word": false, "lstrip": false, "rstrip": false, "normalized": false, "special": false}, {"id": 128386, "content": "</think>", "single_word": false, "lstrip": false, "rstrip": false, "normalized": false, "special": false}], "normalizer": {"type": "NFC"}, "pre_tokenizer": {"type": "Sequence", "pretokenizers": [{"type": "Split", "pattern": {"Regex": "(?i:'s|'t|'re|'ve|'m|'ll|'d)|[^\\r\\n\\p{L}\\p{N}]?\\p{L}+|\\p{N}| ?[^\\s\\p{L}\\p{N}]+[\\r\\n]*|\\s*[\\r\\n]+|\\s+(?!\\S)|\\s+"}, "behavior": "Isolated", "invert": false}, {"type": "ByteLevel", "add_prefix_space": false, "trim_offsets": false, "use_regex": false}]}, "post_processor": {"type": "ByteLevel", "add_prefix_space": false, "trim_offsets": false, "use_regex": false}, "decoder": {"type": "ByteLevel", "add_prefix_space": false, "trim_offsets": false, "use_regex": false}, "model": {"type": "BPE", "dropout": null, "unk_token": null, "continuing_subword_prefix": "", "end_of_word_suffix": "", "fuse_unk": false, "byte_fallback": false, "vocab": {"!": 0, "\"": 1, "#": 2, "$": 3, "%": 4, "&": 5, "'": 6, "(": 7, ")": 8, "*": 9, "+": 10, ",": 11, "-": 12, ".": 13, "/": 14, "0": 15, "1": 16, "2": 17, "3": 18, "4": 19, "5": 20, "6": 21, "7": 22, "8": 23, "9": 24, ":": 25, ";": 26, "<": 27, "=": 28, ">": 29, "?": 30, "@": 31, "A": 32, "B": 33, "C": 34, "D": 35, "E": 36, "F": 37, "G": 38, "H": 39, "I": 40, "J": 41, "K": 42, "L": 43, "M": 44, "N": 45, "O": 46, "P": 47, "Q": 48, "R": 49, "S": 50, "T": 51, "U": 52, "V": 53, "W": 54, "X": 55, "Y": 56, "Z": 57, "[": 58, "\\": 59, "]": 60, "^": 61, "_": 62, "`": 63, "a": 64, "b": 65, "c": 66, "d": 67, "e": 68, "f": 69, "g": 70, "h": 71, "i": 72, "j": 73, "k": 74, "l": 75, "m": 76, "n": 77, "o": 78, "p": 79, "q": 80, "r": 81, "s": 82, "t": 83, "u": 84, "v": 85, "w": 86, "x": 87, "y": 88, "z": 89, "{": 90, "|": 91, "}": 92, "~": 93, "¡": 94, "¢": 95, "£": 96, "¤": 97, "¥": 98, "¦": 99, "§": 100, "¨": 101, "©": 102, "ª": 103, "«": 104, "¬": 105, "®": 106, "¯": 107, "°": 108, "±": 109, "²": 110, "³": 111, "´": 112, "µ": 113, "¶": 114, "·": 115, "¸": 116, "¹": 117, "º": 118, "»": 119, "¼": 120, "½": 121, "¾": 122, "¿": 123, "À": 124, "Á": 125, "Â": 126, "Ã": 127, "Ä": 128, "Å": 129, "Æ": 130, "Ç": 131, "È": 132, "É": 133, "Ê": 134, "Ë": 135, "Ì": 136, "Í": 137, "Î": 138, "Ï": 139, "Ð": 140, "Ñ": 141, "Ò": 142, "Ó": 143, "Ô": 144, "Õ": 145, "Ö": 146, "×": 147, "Ø": 148, "Ù": 149, "Ú": 150, "Û": 151, "Ü": 152, "Ý": 153, "Þ": 154, "ß": 155, "à": 156, "á": 157, "â": 158, "ã": 159, "ä": 160, "å": 161, "æ": 162, "ç": 163, "è": 164, "é": 165, "ê": 166, "ë": 167, "ì": 168, "í": 169, "î": 170, "ï": 171, "ð": 172, "ñ": 173, "ò": 174, "ó": 175, "ô": 176, "õ": 177, "ö": 178, "÷": 179, "ø": 180, "ù": 181, "ú": 182, "û": 183, "ü": 184, "ý": 185, "þ": 186, "ÿ": 187, "Ā": 188, "ā": 189, "Ă": 190, "ă": 191, "Ą": 192, "ą": 193, "Ć": 194, "ć": 195, "Ĉ": 196, "ĉ": 197, "Ċ": 198, "ċ": 199, "Č": 200, "č": 201, "Ď": 202, "ď": 203, "Đ": 204, "đ": 205, "Ē": 206, "ē": 207, "Ĕ": 208, "ĕ": 209, "Ė": 210, "ė": 211, "Ę": 212, "ę": 213, "Ě": 214, "ě": 215, "Ĝ": 216, "ĝ": 217, "Ğ": 218, "ğ": 219, "Ġ": 220, "ġ": 221, "Ģ": 222, "ģ": 223, "Ĥ": 224, "ĥ": 225, "Ħ": 226, "ħ": 227, "Ĩ": 228, "ĩ": 229, "Ī": 230, "ī": 231, "Ĭ": 232, "ĭ": 233, "Į": 234, "į": 235, "İ": 236, "ı": 237, "Ĳ": 238, "ĳ": 239, "Ĵ": 240, "ĵ": 241, "Ķ": 242, "ķ": 243, "ĸ": 244, "Ĺ": 245, "ĺ": 246, "Ļ": 247, "ļ": 248, "Ľ": 249, "ľ": 250, "Ŀ": 251, "ŀ": 252, "Ł": 253, "ł": 254, "Ń": 255, "ĠĠ": 256, "ĠĠĠĠ": 257, "in": 258, "Ġt": 259, "ĠĠĠĠĠĠĠĠ": 260, "er": 261, "ĠĠĠ": 262, "on": 263, "Ġa": 264, "re": 265, "at": 266, "st": 267, "en": 268, "or": 269, "Ġth": 270, "ĊĊ": 271, "Ġc": 272, "le": 273, "Ġs": 274, "it": 275, "an": 276, "ar": 277, "al": 278, "Ġthe": 279, ";Ċ": 280, "Ġp": 281, "Ġf": 282, "ou": 283, "Ġ=": 284, "is": 285, "ĠĠĠĠĠĠĠ": 286, "ing": 287, "es": 288, "Ġw": 289, "ion": 290, "ed": 291, "ic": 292, "Ġb": 293, "Ġd": 294, "et": 295, "Ġm": 296, "Ġo": 297, "ĉĉ": 298, "ro": 299, "as": 300, "el": 301, "ct": 302, "nd": 303, "Ġin": 304, "Ġh": 305, "ent": 306, "id": 307, "Ġn": 308, "am": 309, "ĠĠĠĠĠĠĠĠĠĠĠ": 310, "Ġto": 311, "Ġre": 312, "--": 313, "Ġ{": 314, "Ġof": 315, "om": 316, ");Ċ": 317, "im": 318, "čĊ": 319, "Ġ(": 320, "il": 321, "//": 322, "Ġand": 323, "ur": 324, "se": 325, "Ġl": 326, "ex": 327, "ĠS": 328, "ad": 329, "Ġ\"": 330, "ch": 331, "ut": 332, "if": 333, "**": 334, "Ġ}": 335, "em": 336, "ol": 337, "ĠĠĠĠĠĠĠĠĠĠĠĠĠĠĠĠ": 338, "th": 339, ")Ċ": 340, "Ġ{Ċ": 341, "Ġg": 342, "ig": 343, "iv": 344, ",Ċ": 345, "ce": 346, "od": 347, "Ġv": 348, "ate": 349, "ĠT": 350, "ag": 351, "ay": 352, "Ġ*": 353, "ot": 354, "us": 355, "ĠC": 356, "Ġst": 357, "ĠI": 358, "un": 359, "ul": 360, "ue": 361, "ĠA": 362, "ow": 363, "Ġ'": 364, "ew": 365, "Ġ<": 366, "ation": 367, "()": 368, "Ġfor": 369, "ab": 370, "ort": 371, "um": 372, "ame": 373, "Ġis": 374, "pe": 375, "tr": 376, "ck": 377, "âĢ": 378, "Ġy": 379, "ist": 380, "----": 381, ".ĊĊ": 382, "he": 383, "Ġe": 384, "lo": 385, "ĠM": 386, "Ġbe": 387, "ers": 388, "Ġon": 389, "Ġcon": 390, "ap": 391, "ub": 392, "ĠP": 393, "ĠĠĠĠĠĠĠĠĠĠĠĠĠĠĠ": 394, "ass": 395, "int": 396, ">Ċ": 397, "ly": 398, "urn": 399, "Ġ$": 400, ";ĊĊ": 401, "av": 402, "port": 403, "ir": 404, "->": 405, "nt": 406, "ction": 407, "end": 408, "Ġde": 409, "ith": 410, "out": 411, "turn": 412, "our": 413, "ĠĠĠĠĠ": 414, "lic": 415, "res": 416, "pt": 417, "==": 418, "Ġthis": 419, "Ġwh": 420, "Ġif": 421, "ĠD": 422, "ver": 423, "age": 424, "ĠB": 425, "ht": 426, "ext": 427, "=\"": 428, "Ġthat": 429, "****": 430, "ĠR": 431, "Ġit": 432, "ess": 433, "ĠF": 434, "Ġr": 435, "os": 436, "and": 437, "Ġas": 438, "ect": 439, "ke": 440, "rom": 441, "Ġ//": 442, "con": 443, "ĠL": 444, "(\"": 445, "qu": 446, "lass": 447, "Ġwith": 448, "iz": 449, "de": 450, "ĠN": 451, "Ġal": 452, "op": 453, "up": 454, "get": 455, "Ġ}Ċ": 456, "ile": 457, "Ġan": 458, "ata": 459, "ore": 460, "ri": 461, "Ġpro": 462, ";čĊ": 463, "ĉĉĉĉ": 464, "ter": 465, "ain": 466, "ĠW": 467, "ĠE": 468, "Ġcom": 469, "Ġreturn": 470, "art": 471, "ĠH": 472, "ack": 473, "import": 474, "ublic": 475, "Ġor": 476, "est": 477, "ment": 478, "ĠG": 479, "able": 480, "Ġ-": 481, "ine": 482, "ill": 483, "ind": 484, "ere": 485, "::": 486, "ity": 487, "Ġ+": 488, "Ġtr": 489, "elf": 490, "ight": 491, "('": 492, "orm": 493, "ult": 494, "str": 495, "..": 496, "\",": 497, "Ġyou": 498, "ype": 499, "pl": 500, "Ġnew": 501, "Ġj": 502, "ĠĠĠĠĠĠĠĠĠĠĠĠĠĠĠĠĠĠĠ": 503, "Ġfrom": 504, "Ġex": 505, "ĠO": 506, "ld": 507, "Ġ[": 508, "oc": 509, ":Ċ": 510, "Ġse": 511, "Ġle": 512, "--------": 513, ".s": 514, "{Ċ": 515, "',": 516, "ant": 517, "Ġat": 518, "ase": 519, ".c": 520, "Ġch": 521, "</": 522, "ave": 523, "ang": 524, "Ġare": 525, "Ġint": 526, "âĢĻ": 527, "_t": 528, "ert": 529, "ial": 530, "act": 531, "}Ċ": 532, "ive": 533, "ode": 534, "ost": 535, "Ġclass": 536, "Ġnot": 537, "og": 538, "ord": 539, "alue": 540, "all": 541, "ff": 542, "();Ċ": 543, "ont": 544, "ime": 545, "are": 546, "ĠU": 547, "Ġpr": 548, "Ġ:": 549, "ies": 550, "ize": 551, "ure": 552, "Ġby": 553, "ire": 554, "Ġ}ĊĊ": 555, ".p": 556, "Ġsh": 557, "ice": 558, "ast": 559, "ption": 560, "tring": 561, "ok": 562, "__": 563, "cl": 564, "##": 565, "Ġhe": 566, "ard": 567, ").": 568, "Ġ@": 569, "iew": 570, "ĉĉĉ": 571, "Ġwas": 572, "ip": 573, "this": 574, "Ġu": 575, "ĠThe": 576, "ide": 577, "ace": 578, "ib": 579, "ac": 580, "rou": 581, "Ġwe": 582, "ject": 583, "Ġpublic": 584, "ak": 585, "ve": 586, "ath": 587, "oid": 588, "Ġ=>": 589, "ust": 590, "que": 591, "Ġres": 592, "))": 593, "'s": 594, "Ġk": 595, "ans": 596, "yst": 597, "unction": 598, "********": 599, "Ġi": 600, "Ġus": 601, "pp": 602, "one": 603, "ail": 604, "====": 605, "name": 606, "Ġstr": 607, "Ġ/": 608, "Ġ&": 609, "ach": 610, "div": 611, "ystem": 612, "ell": 613, "Ġhave": 614, "err": 615, "ould": 616, "ull": 617, "pon": 618, "ĠJ": 619, "_p": 620, "Ġ==": 621, "ign": 622, "St": 623, ".Ċ": 624, "Ġpl": 625, ");ĊĊ": 626, "form": 627, "put": 628, "ount": 629, "}ĊĊ": 630, "dd": 631, "ite": 632, "Ġget": 633, "rr": 634, "ome": 635, "ĠâĢ": 636, "aram": 637, "cc": 638, "Ġ*/": 639, "ER": 640, "In": 641, "les": 642, "_s": 643, "ong": 644, "ie": 645, "Ġcan": 646, "ĠV": 647, "erv": 648, "pr": 649, "Ġun": 650, "row": 651, "ber": 652, "Ġdo": 653, "ll": 654, "Ġel": 655, "Ġself": 656, "ated": 657, "ary": 658, "Ġ.": 659, "']": 660, "ud": 661, "Ġen": 662, "ĠTh": 663, "ĠĠĠĠĠĠĠĠĠĠĠĠĠĠĠĠĠĠĠĠĠĠĠ": 664, "te": 665, "_c": 666, "uct": 667, "Ġab": 668, "ork": 669, ".get": 670, "Ġ#": 671, "aw": 672, "ress": 673, "ob": 674, "Name": 675, "app": 676, "['": 677, "Ġall": 678, "ory": 679, "ition": 680, "ance": 681, "ear": 682, "Ġcont": 683, "vent": 684, "ia": 685, "Ġwill": 686, "IN": 687, "ĠĠĠĠĠĠĠĠĠ": 688, "return": 689, "Ġ</": 690, "data": 691, ")ĊĊ": 692, "Re": 693, "ple": 694, "ild": 695, "ther": 696, "Ġyour": 697, "\"Ċ": 698, "($": 699, "Ġout": 700, "),": 701, "Ġhas": 702, "String": 703, "so": 704, "Ġup": 705, "ax": 706, "Ġdef": 707, "Ġbo": 708, "ge": 709, "alse": 710, "ON": 711, "per": 712, "ich": 713, "Ġbut": 714, "ĠĊ": 715, "Ġ_": 716, "_m": 717, "add": 718, "quest": 719, "odel": 720, "self": 721, "ery": 722, "ft": 723, "ens": 724, "////": 725, "ake": 726, ".C": 727, "Ġgo": 728, "Ġfunction": 729, "ĠK": 730, "ivate": 731, "Ġim": 732, "Ġconst": 733, ".t": 734, "Ġ*/Ċ": 735, ");čĊ": 736, "Ġvoid": 737, "Ġset": 738, "ĠSystem": 739, "cri": 740, "()Ċ": 741, "li": 742, "ĉif": 743, ".m": 744, "ally": 745, "set": 746, "ep": 747, "âĢĻs": 748, "bo": 749, "def": 750, "',Ċ": 751, "Ġme": 752, "Ġ!": 753, "atch": 754, "\">": 755, "\",Ċ": 756, "ec": 757, "ĠIn": 758, "ph": 759, "Ġ|": 760, "_f": 761, "Ġvar": 762, "ence": 763, "Id": 764, "ree": 765, "ink": 766, "lect": 767, "ug": 768, "eth": 769, "Ġelse": 770, "----------------": 771, "cont": 772, "Ġso": 773, "atic": 774, "Ġlo": 775, "pro": 776, "ton": 777, "ss": 778, "own": 779, "abel": 780, "oint": 781, "ous": 782, "eld": 783, "ST": 784, "The": 785, "ĠĠĠĠĠĠĠĠĠĠĠĠĠĠĠĠĠĠĠĠĠĠĠĠĠĠĠĠĠĠĠĠ": 786, "RE": 787, "\":": 788, "olor": 789, "tp": 790, "eg": 791, "key": 792, "ude": 793, "ĠSt": 794, "ound": 795, "Ġar": 796, "\");Ċ": 797, "ener": 798, "ser": 799, "bject": 800, "essage": 801, "fer": 802, "Ġmore": 803, "ations": 804, "ents": 805, "Ġhis": 806, "Ġthey": 807, ".S": 808, "ĠY": 809, "use": 810, "ne": 811, "ish": 812, "old": 813, "_d": 814, "io": 815, "ield": 816, "Ġper": 817, "Cont": 818, "ings": 819, "####": 820, "Ġdata": 821, "Ġsa": 822, "ef": 823, "fo": 824, "Ġone": 825, "eng": 826, "Ġdis": 827, "AT": 828, "Ġname": 829, "Ġtrue": 830, "val": 831, "led": 832, ".f": 833, "Ġne": 834, "Ġend": 835, ".T": 836, "cre": 837, "ark": 838, "log": 839, "Ex": 840, "error": 841, "_id": 842, "urre": 843, "ange": 844, "Ġnull": 845, "rray": 846, "Ġmy": 847, "pan": 848, "ict": 849, "ator": 850, "View": 851, "List": 852, "ĉreturn": 853, "âĢĿ": 854, "Ġpre": 855, "Ġx": 856, "clude": 857, "arg": 858, "ov": 859, ".h": 860, "Ġ>": 861, "Ġtheir": 862, "')": 863, "irst": 864, "ick": 865, "gh": 866, "LE": 867, "OR": 868, "Ġprivate": 869, "tem": 870, "čĊčĊ": 871, "user": 872, "Ġ)": 873, "com": 874, ".A": 875, "\";Ċ": 876, "Ġid": 877, "read": 878, "Ġwho": 879, "_b": 880, "\">Ċ": 881, "Ġtime": 882, "Ġman": 883, "ry": 884, "========": 885, "roup": 886, "rop": 887, "public": 888, "vel": 889, "umber": 890, "ble": 891, "Ġwhich": 892, "****************": 893, "Ġany": 894, "Ġfalse": 895, "we": 896, "Ġvalue": 897, "Ġli": 898, "\")": 899, "nder": 900, "gr": 901, "Ġno": 902, "param": 903, "fig": 904, ".com": 905, "Ġapp": 906, "_l": 907, "ions": 908, ".D": 909, "ĠCh": 910, "Ġabout": 911, "Ġadd": 912, "Ġsu": 913, "Ġstring": 914, "ID": 915, "Ġover": 916, "string": 917, ".l": 918, "ource": 919, "_C": 920, "]Ċ": 921, "Ġqu": 922, "ĠString": 923, "ca": 924, "SE": 925, "Ġro": 926, "sh": 927, "ual": 928, "Type": 929, "son": 930, "new": 931, "ern": 932, "Ġag": 933, "AR": 934, "];Ċ": 935, "].": 936, "Ġ?": 937, "ical": 938, "Ġdes": 939, "uth": 940, "ix": 941, "ays": 942, "Ġtype": 943, "'t": 944, "ault": 945, "Ġinter": 946, "var": 947, ".b": 948, "Ġpart": 949, ".d": 950, "urrent": 951, "IT": 952, "EN": 953, "enc": 954, "(f": 955, "ra": 956, "value": 957, "cho": 958, "utton": 959, "ose": 960, "Ġ!=": 961, "ater": 962, "Ã©": 963, "reate": 964, "oll": 965, "pos": 966, "yle": 967, "ng": 968, "AL": 969, "using": 970, "ames": 971, "Ġ{čĊ": 972, "ates": 973, "ely": 974, "Ġwork": 975, "Ġem": 976, "inal": 977, "Ġsp": 978, "Ġwhen": 979, ".set": 980, "ĠĠĠĠĠĠ": 981, "):Ċ": 982, "to": 983, "quire": 984, "indow": 985, "lement": 986, "pect": 987, "ash": 988, "[i": 989, "Ġuse": 990, ".F": 991, "pec": 992, "Ġad": 993, "ove": 994, "ception": 995, "ength": 996, "include": 997, "ader": 998, "ĠĠĠĠĠĠĠĠĠĠĠĠĠĠĠĠĠĠĠĠĠĠĠĠĠĠĠ": 999, "atus": 1000, "Th": 1001, "itle": 1002, "rit": 1003, "void": 1004, "().": 1005, "(Ċ": 1006, "Ġoff": 1007, "Ġother": 1008, "Ġ&&": 1009, "';Ċ": 1010, "ms": 1011, "Ġbeen": 1012, "Ġte": 1013, "ml": 1014, "co": 1015, "nc": 1016, "ervice": 1017, "Ġ%": 1018, "**Ċ": 1019, "ann": 1020, "ade": 1021, "ĊĊĊĊ": 1022, "lock": 1023, "const": 1024, "ponse": 1025, "Ġsup": 1026, "++": 1027, "date": 1028, "Ġacc": 1029, "Ġhad": 1030, "Ġbu": 1031, "ĠRe": 1032, "Ġwere": 1033, "Ġfile": 1034, "Ġwould": 1035, "ĠâĢľ": 1036, "ven": 1037, "iss": 1038, "Ġour": 1039, "class": 1040, "raw": 1041, "Ġyear": 1042, "Data": 1043, "Ġval": 1044, "Ġsome": 1045, "fter": 1046, "ys": 1047, "Ġ///": 1048, "round": 1049, "view": 1050, "Ġpe": 1051, "Ġthere": 1052, "Ġsaid": 1053, "du": 1054, "of": 1055, "line": 1056, "/*": 1057, "duct": 1058, "Ġher": 1059, "ĠĠĠĠĠĠĠĠĠĠĠĠĠ": 1060, "Res": 1061, "Ġco": 1062, "Ġcomm": 1063, "ise": 1064, "min": 1065, "ĠĠĠĠĊ": 1066, "#include": 1067, "ethod": 1068, ".P": 1069, "ute": 1070, "Ġass": 1071, "Int": 1072, "ask": 1073, "loc": 1074, "Ġlike": 1075, "ody": 1076, "Ġlet": 1077, "load": 1078, "Ġam": 1079, "rol": 1080, "Ġgr": 1081, "yp": 1082, "Ġalso": 1083, "ĠIt": 1084, "url": 1085, "ific": 1086, "ors": 1087, "_P": 1088, "_n": 1089, "igh": 1090, "Ġthan": 1091, "Com": 1092, "AN": 1093, "UL": 1094, "ating": 1095, "ĠThis": 1096, "ref": 1097, "_S": 1098, "Ġstatic": 1099, "roll": 1100, "Ġjust": 1101, "Ġresult": 1102, "ian": 1103, "idth": 1104, "Ġthem": 1105, "));Ċ": 1106, "der": 1107, "reak": 1108, "Con": 1109, "://": 1110, "ule": 1111, "...": 1112, "arch": 1113, "ement": 1114, "Ġ<<": 1115, "ush": 1116, "ense": 1117, "arr": 1118, "Ġinto": 1119, "cess": 1120, "amp": 1121, "ied": 1122, "ument": 1123, "Ġ\\": 1124, "],": 1125, "wo": 1126, "als": 1127, "Ġwhat": 1128, "anc": 1129, "Value": 1130, "='": 1131, "olum": 1132, "Ġpos": 1133, "ages": 1134, "ayer": 1135, "Ġsc": 1136, "ues": 1137, "\")Ċ": 1138, "_T": 1139, "Ġlist": 1140, "(s": 1141, "Ġcase": 1142, "Ch": 1143, "ĉĉĉĉĉ": 1144, "////////": 1145, "ponent": 1146, "Ġz": 1147, "Ġkn": 1148, "let": 1149, "DE": 1150, "red": 1151, "Ġfe": 1152, "Ġ},Ċ": 1153, "Ġ,": 1154, "(t": 1155, "Ġfirst": 1156, "');Ċ": 1157, "word": 1158, "Ġimport": 1159, "Ġact": 1160, "Ġchar": 1161, "CT": 1162, "ĠTr": 1163, "ople": 1164, "={": 1165, "ĉf": 1166, "ient": 1167, "cent": 1168, ".j": 1169, "lection": 1170, "))Ċ": 1171, "Ġonly": 1172, "Ġprint": 1173, "mer": 1174, ".W": 1175, "ock": 1176, "Ġ--": 1177, "Text": 1178, "Ġop": 1179, "ank": 1180, "Ġits": 1181, "Ġback": 1182, "[\"": 1183, "Ġneed": 1184, "Ġcl": 1185, "Ġsub": 1186, "Ġla": 1187, "((": 1188, ".\"": 1189, "Object": 1190, "Ġstart": 1191, "file": 1192, "(self": 1193, "ner": 1194, "ey": 1195, "Ġuser": 1196, "Ġent": 1197, "ĠCom": 1198, "its": 1199, "ĠCon": 1200, "ouble": 1201, "ower": 1202, "item": 1203, "very": 1204, "ĠWe": 1205, "lick": 1206, "ĠQ": 1207, "php": 1208, "ttp": 1209, "':": 1210, "ics": 1211, "Ġunder": 1212, "Ġ*Ċ": 1213, ".L": 1214, ");": 1215, "ices": 1216, "Ġreg": 1217, ")čĊ": 1218, "ĉpublic": 1219, "SS": 1220, "Ġthen": 1221, "reat": 1222, "ious": 1223, ".G": 1224, "ek": 1225, "irect": 1226, "heck": 1227, "cript": 1228, "ning": 1229, "ĠUn": 1230, "Ġmay": 1231, "ĠWh": 1232, "Bo": 1233, "Item": 1234, "struct": 1235, ".st": 1236, "ream": 1237, "ible": 1238, "loat": 1239, "Ġorg": 1240, "und": 1241, "sum": 1242, "_in": 1243, "../": 1244, "_M": 1245, "Ġhow": 1246, "rite": 1247, "'Ċ": 1248, "To": 1249, "ww": 1250, "Ġpeople": 1251, "index": 1252, ".n": 1253, "http": 1254, "(m": 1255, "ector": 1256, "Ġind": 1257, "Ġjav": 1258, "],Ċ": 1259, "ĠHe": 1260, "_st": 1261, "ful": 1262, "ole": 1263, "){Ċ": 1264, "Ġshould": 1265, "opy": 1266, "elp": 1267, "ier": 1268, "_name": 1269, "erson": 1270, "ION": 1271, "ote": 1272, "Ġtest": 1273, "Ġbet": 1274, "rror": 1275, "ular": 1276, "ãĢ": 1277, "ĠÐ": 1278, "bs": 1279, "ting": 1280, "Ġmake": 1281, "Tr": 1282, "Ġafter": 1283, "arget": 1284, "RO": 1285, "olumn": 1286, "rc": 1287, "_re": 1288, "define": 1289, "Ġright": 1290, "right": 1291, "day": 1292, "Ġlong": 1293, "[]": 1294, "(p": 1295, "td": 1296, "cond": 1297, "ĠPro": 1298, "Ġrem": 1299, "ptions": 1300, "vid": 1301, ".g": 1302, "Ġext": 1303, "Ġ__": 1304, "')Ċ": 1305, "pace": 1306, "mp": 1307, "Ġmin": 1308, "stance": 1309, "air": 1310, "action": 1311, "wh": 1312, "type": 1313, "util": 1314, "ait": 1315, "<?": 1316, "IC": 1317, "text": 1318, "Ġph": 1319, "Ġfl": 1320, ".M": 1321, "ccess": 1322, "br": 1323, "fore": 1324, "ersion": 1325, "),Ċ": 1326, ".re": 1327, "ateg": 1328, "Ġloc": 1329, "ins": 1330, "-s": 1331, "trib": 1332, "ĠInt": 1333, "Ġarray": 1334, ",\"": 1335, "Pro": 1336, "(c": 1337, "ession": 1338, ">ĊĊ": 1339, "Ġshe": 1340, "\"]": 1341, "aph": 1342, "Ġexp": 1343, "erty": 1344, "ĠSe": 1345, "Ġpar": 1346, "unc": 1347, "ET": 1348, "Ġread": 1349, "print": 1350, "Ġrel": 1351, "Ġform": 1352, "Ġdr": 1353, "Exception": 1354, "input": 1355, "Ġtrans": 1356, "########": 1357, "order": 1358, "By": 1359, "Ġaw": 1360, "ities": 1361, "uff": 1362, "play": 1363, ".add": 1364, "ĠâĢĵ": 1365, "Ġwant": 1366, "Ġcomp": 1367, "ments": 1368, "Ġ||": 1369, "az": 1370, "be": 1371, "Ġnumber": 1372, "Ġrequire": 1373, "ĠEx": 1374, "Ġcol": 1375, "Ġkey": 1376, "ember": 1377, "Ġtwo": 1378, "Ġsize": 1379, "Ġwhere": 1380, "UT": 1381, "result": 1382, "ĠĠĠĠĠĠĠĠĠĠĠĠĠĠĠĠĠĠĠĠĠĠĠĠĠĠĠĠĠĠĠ": 1383, "ough": 1384, "orld": 1385, "ood": 1386, "uch": 1387, "ative": 1388, "ger": 1389, "arent": 1390, "Ġ/*": 1391, "Ġarg": 1392, "Ġwhile": 1393, "(this": 1394, "Ġrec": 1395, "Ġdif": 1396, "State": 1397, "Ġspec": 1398, "ride": 1399, "_F": 1400, "Ġlook": 1401, "AM": 1402, "ility": 1403, "eter": 1404, "âĢĻt": 1405, "ĊĊĊ": 1406, "ayout": 1407, "--------------------------------": 1408, "ager": 1409, "Ġcould": 1410, "Ġbr": 1411, "ends": 1412, "ures": 1413, "Ġknow": 1414, "ets": 1415, "ĠIf": 1416, "ĠSh": 1417, ".w": 1418, "back": 1419, "Ġser": 1420, "Ġ+=": 1421, "Ġfr": 1422, "());Ċ": 1423, "Ġhand": 1424, "Ind": 1425, "ULL": 1426, "Im": 1427, "();ĊĊ": 1428, "Ġmost": 1429, "Ġtry": 1430, "Ġnow": 1431, "rough": 1432, ">čĊ": 1433, "ackage": 1434, "Ġhim": 1435, "._": 1436, "ify": 1437, "Ġbreak": 1438, "Ġ);Ċ": 1439, "ren": 1440, "#define": 1441, "itt": 1442, "Ġap": 1443, "ĉc": 1444, "(n": 1445, "ĠYou": 1446, ":ĊĊ": 1447, "-m": 1448, "Ġevery": 1449, "ustom": 1450, "lient": 1451, "ocument": 1452, "cription": 1453, "Error": 1454, "-b": 1455, "][": 1456, "trans": 1457, "Ġpoint": 1458, "Ġstd": 1459, "Ġfil": 1460, "Time": 1461, "Ġmod": 1462, "Ġ->": 1463, "Ġerror": 1464, "ah": 1465, "Ġtext": 1466, "roller": 1467, "lose": 1468, "ql": 1469, "Ġpol": 1470, "></": 1471, "Ġshow": 1472, "User": 1473, "ased": 1474, "Ġ{ĊĊ": 1475, "Ġfind": 1476, "ED": 1477, "span": 1478, "enu": 1479, "Ġcurrent": 1480, "Ġused": 1481, "cept": 1482, "clud": 1483, "Ġplay": 1484, "Ġlog": 1485, "ution": 1486, "fl": 1487, "Ġsee": 1488, "indows": 1489, "Ġhelp": 1490, "Ġthese": 1491, "Ġpass": 1492, "Ġdown": 1493, "Ġeven": 1494, "ason": 1495, "uild": 1496, "from": 1497, "(d": 1498, "Ġbl": 1499, "label": 1500, "else": 1501, "Ġ(!": 1502, "ized": 1503, "(),": 1504, "Ġob": 1505, "Ġitem": 1506, "ump": 1507, "UR": 1508, "orn": 1509, "Ġdon": 1510, "Se": 1511, "man": 1512, "ample": 1513, "tn": 1514, "================": 1515, "He": 1516, "gram": 1517, "Ġdid": 1518, "wn": 1519, "_h": 1520, "iver": 1521, "Ġsm": 1522, "Ġthrough": 1523, "ĠAn": 1524, "che": 1525, "Ġinv": 1526, "ouse": 1527, "Ġes": 1528, "ĠNew": 1529, "export": 1530, "mary": 1531, "uto": 1532, "ler": 1533, "Ġlast": 1534, "Ġevent": 1535, "try": 1536, "ï¼": 1537, "ily": 1538, "igned": 1539, "ines": 1540, "ollow": 1541, "icense": 1542, "sole": 1543, "lear": 1544, "(int": 1545, "Ġagain": 1546, "Ġhigh": 1547, "html": 1548, "Index": 1549, "uthor": 1550, "Ġ/**Ċ": 1551, "Ġline": 1552, "Event": 1553, "_D": 1554, "Ġdoes": 1555, "itial": 1556, "Ġcr": 1557, "ars": 1558, "Ġtem": 1559, "cause": 1560, "face": 1561, "Ġ`": 1562, "_A": 1563, "Button": 1564, "ature": 1565, "ected": 1566, "ES": 1567, "ister": 1568, "ĉĊ": 1569, "Ġbefore": 1570, "ale": 1571, "other": 1572, "Ġbecause": 1573, "roid": 1574, "Ġed": 1575, "ik": 1576, "reg": 1577, "ĠDe": 1578, "Ġdist": 1579, "},Ċ": 1580, "Ġstate": 1581, "Ġcons": 1582, "rint": 1583, "att": 1584, "Ġhere": 1585, "ined": 1586, "Ġfinal": 1587, "Ġ\"\"": 1588, "Key": 1589, "LO": 1590, "Ġdel": 1591, "pty": 1592, "thing": 1593, "ĠAnd": 1594, "Ġrun": 1595, "ĠX": 1596, "ym": 1597, ".app": 1598, "Ġvery": 1599, "ces": 1600, "_N": 1601, "ared": 1602, "ward": 1603, "list": 1604, "ited": 1605, "olog": 1606, "itch": 1607, "Box": 1608, "ife": 1609, "Ġac": 1610, "Ġmodel": 1611, "Ġmon": 1612, "Ġway": 1613, "lete": 1614, "Ġcall": 1615, "Ġatt": 1616, "Ġcal": 1617, "vert": 1618, "Ġdec": 1619, "lease": 1620, "oun": 1621, "Ġ});Ċ": 1622, "fr": 1623, "formation": 1624, "etail": 1625, "Ġnum": 1626, "aj": 1627, "query": 1628, "Ġwell": 1629, "Ġobject": 1630, "ĠAs": 1631, "Ġyears": 1632, "Color": 1633, "IS": 1634, "Ġdefault": 1635, "Wh": 1636, "Ġins": 1637, "aint": 1638, "Ġjava": 1639, "Ġsim": 1640, "ĠAr": 1641, "mon": 1642, "til": 1643, "();čĊ": 1644, "):": 1645, "Set": 1646, "atter": 1647, "Ġview": 1648, "Ġpres": 1649, "array": 1650, "We": 1651, "At": 1652, "Ġbel": 1653, "Ġmany": 1654, "Man": 1655, "ender": 1656, "Ġbeing": 1657, "Ġgood": 1658, "ĉĉĉĉĉĉ": 1659, "ational": 1660, "ware": 1661, ".log": 1662, "{čĊ": 1663, "Ġusing": 1664, "_B": 1665, "Ġ:=": 1666, "_w": 1667, "ists": 1668, "lish": 1669, "Ġstud": 1670, "ĠAl": 1671, "Ġgu": 1672, "config": 1673, "uring": 1674, "time": 1675, "oken": 1676, "amespace": 1677, "Ġrequest": 1678, "Ġchild": 1679, "ĠÃ": 1680, "lob": 1681, "Ġparam": 1682, "Ġ}čĊ": 1683, "Ġecho": 1684, "function": 1685, "********************************": 1686, "ps": 1687, "Element": 1688, "alk": 1689, "lication": 1690, "by": 1691, "Size": 1692, "rawing": 1693, "Ġperson": 1694, "ĠĠĠĠĠĠĠĠĠĠĠĠĠĠĠĠĠ": 1695, "\\n": 1696, "object": 1697, "ince": 1698, "En": 1699, "File": 1700, "uf": 1701, "ffect": 1702, "AC": 1703, "Ġstyle": 1704, "summary": 1705, "Ġque": 1706, "_r": 1707, "Ġ($": 1708, "Model": 1709, "ident": 1710, "Ġmethod": 1711, "IL": 1712, "ott": 1713, "less": 1714, "ING": 1715, "Ġ()": 1716, "Ġexpect": 1717, "ync": 1718, "package": 1719, "urs": 1720, "Ġprot": 1721, "./": 1722, "pre": 1723, "Ġ)Ċ": 1724, "ma": 1725, "Ġsur": 1726, "Ġfound": 1727, "Info": 1728, "par": 1729, "imes": 1730, ".e": 1731, "ains": 1732, "Ġpost": 1733, "-d": 1734, "olean": 1735, "Ġsl": 1736, "PE": 1737, "Ġsuch": 1738, "select": 1739, "ainer": 1740, "Ġthink": 1741, "Ġdiffer": 1742, ".r": 1743, "/**Ċ": 1744, "FF": 1745, "ool": 1746, "plate": 1747, "qual": 1748, "ĠFor": 1749, "Ġmuch": 1750, "uc": 1751, "(new": 1752, "odule": 1753, "Ġsom": 1754, "Ġhttp": 1755, "ĠList": 1756, "Ġcount": 1757, "Ġinst": 1758, "char": 1759, "mit": 1760, ".id": 1761, "aking": 1762, "Ġgener": 1763, "px": 1764, "vice": 1765, "_data": 1766, "ĠNULL": 1767, "}čĊ": 1768, "idd": 1769, "ãĢĤ": 1770, "Ġmed": 1771, "org": 1772, "ider": 1773, "ache": 1774, "work": 1775, "Ġcheck": 1776, "ween": 1777, "Ġ((": 1778, "the": 1779, "ants": 1780, "><": 1781, ".B": 1782, "-c": 1783, "Ġopen": 1784, "Ġest": 1785, "ĠĠĠĠĠĠĠĠĊ": 1786, "Ġnext": 1787, "IM": 1788, "OT": 1789, "Ã³": 1790, "Ġfollow": 1791, "content": 1792, "ĠĠĠĠĠĠĠĠĠĠĠĠ": 1793, "Ġinclud": 1794, "HE": 1795, "ĠRes": 1796, "Ġhref": 1797, "Ġcar": 1798, "ypes": 1799, "image": 1800, "Un": 1801, "Ġbool": 1802, "AD": 1803, "Ġgame": 1804, ".Form": 1805, "rows": 1806, "*/": 1807, "velop": 1808, ".Drawing": 1809, "Ġpath": 1810, "ision": 1811, "Ġeach": 1812, "ĠPl": 1813, "_type": 1814, "Path": 1815, "nection": 1816, "Ġav": 1817, "').": 1818, "Ġsupport": 1819, "ENT": 1820, "rem": 1821, "\").": 1822, "Ġown": 1823, "Ġcor": 1824, "count": 1825, "miss": 1826, "ually": 1827, "Ġmem": 1828, "std": 1829, "ience": 1830, "search": 1831, "\"ĊĊ": 1832, "Form": 1833, "Ġsex": 1834, "ename": 1835, "Ġsign": 1836, "Ġet": 1837, "ĠĠĠĠĠĠĠĠĠĠ": 1838, "','": 1839, "ĠApp": 1840, "Ġthose": 1841, "off": 1842, "Ġerr": 1843, "Ġsystem": 1844, "Ġbest": 1845, "code": 1846, "Ġsame": 1847, "Ġdi": 1848, "uss": 1849, "Ġcreate": 1850, "ather": 1851, "Array": 1852, ".in": 1853, "fe": 1854, "Service": 1855, "UN": 1856, "ats": 1857, "ĠZ": 1858, "alth": 1859, "Ġmade": 1860, "true": 1861, "AB": 1862, "Ġmark": 1863, "rid": 1864, "ified": 1865, ",čĊ": 1866, "yn": 1867, "press": 1868, "Ġgroup": 1869, "Ġfin": 1870, "ĠLicense": 1871, "Field": 1872, "eger": 1873, "Ġworld": 1874, "iness": 1875, "ty": 1876, "Ġprocess": 1877, "(b": 1878, "Ġcre": 1879, "arn": 1880, "ives": 1881, "Ġmain": 1882, "ideo": 1883, "_g": 1884, "AG": 1885, "valid": 1886, "img": 1887, "PI": 1888, "Ġcolor": 1889, "Ġreport": 1890, "Ġtake": 1891, "rib": 1892, "OM": 1893, "Ġday": 1894, "Request": 1895, "Ġsk": 1896, "bers": 1897, "ĉs": 1898, ".Add": 1899, "oot": 1900, "Image": 1901, "Ġcomple": 1902, "ollection": 1903, "Ġtop": 1904, "Ġfree": 1905, "AS": 1906, "De": 1907, "ĠOn": 1908, "IG": 1909, "eta": 1910, "Date": 1911, "Ġaction": 1912, "Over": 1913, "itor": 1914, "ĠĠĠĠĠĠĠĠĠĠĠĠĠĠĠĠĠĠĠĠĠĠĠĠĠĠĠĠĠĠĠĠĠĠĠ": 1915, "not": 1916, "Ġindex": 1917, "her": 1918, "icon": 1919, "On": 1920, ";čĊčĊ": 1921, "ivity": 1922, "mand": 1923, ".Windows": 1924, "OL": 1925, "Ġreal": 1926, "Ġmax": 1927, "land": 1928, "....": 1929, "raph": 1930, "Ġbuild": 1931, "leg": 1932, "assword": 1933, "?ĊĊ": 1934, "âĢ¦": 1935, "ook": 1936, "uck": 1937, "Ġmessage": 1938, "test": 1939, "ivers": 1940, "Ġinput": 1941, "Ġart": 1942, "Ġbetween": 1943, "Get": 1944, "enter": 1945, "ground": 1946, "ene": 1947, "Ã¡": 1948, ".length": 1949, "Node": 1950, "(i": 1951, "Class": 1952, "for": 1953, "ĠâĢĶ": 1954, "ten": 1955, "oin": 1956, "Ġke": 1957, "ui": 1958, "ĠIN": 1959, "Ġtable": 1960, "sub": 1961, "ĠLe": 1962, "Ġhead": 1963, "Ġmust": 1964, "////////////////": 1965, ".util": 1966, "Context": 1967, "Ġorder": 1968, "Ġmov": 1969, "over": 1970, "Ġcontin": 1971, "Ġsay": 1972, "static": 1973, ".Text": 1974, "ĠclassName": 1975, "pany": 1976, "Ġter": 1977, "head": 1978, "rg": 1979, "Ġproduct": 1980, "This": 1981, ".âĢĿ": 1982, "ĠBut": 1983, "loy": 1984, "Ġdouble": 1985, "sg": 1986, "Ġplace": 1987, ".x": 1988, "message": 1989, "Ġinformation": 1990, "private": 1991, "Ġoper": 1992, "ced": 1993, "db": 1994, "\"></": 1995, "Param": 1996, "icle": 1997, "Ġweek": 1998, "Ġprop": 1999, "table": 2000, "idget": 2001, "place": 2002, "Prop": 2003, "ĠAll": 2004, "els": 2005, "box": 2006, ".ĊĊĊĊ": 2007, ".R": 2008, "ĠTo": 2009, "iter": 2010, "Sh": 2011, "uration": 2012, "older": 2013, "_list": 2014, "come": 2015, "Ġsw": 2016, "ization": 2017, "ĉfor": 2018, "bl": 2019, "Ġprogram": 2020, "(e": 2021, "ape": 2022, "check": 2023, ".Forms": 2024, "Ġund": 2025, "ategory": 2026, "ags": 2027, "Ġresponse": 2028, "US": 2029, "request": 2030, "Ġstruct": 2031, "escription": 2032, "Ġcode": 2033, "_H": 2034, "uffer": 2035, "Ġwithout": 2036, "lobal": 2037, "Manager": 2038, "ilter": 2039, "PO": 2040, "ĉthis": 2041, "option": 2042, "Ġsol": 2043, "Ġ===": 2044, "akes": 2045, "Controller": 2046, "Message": 2047, "Ġref": 2048, "ever": 2049, "ĠSo": 2050, "aining": 2051, ".append": 2052, "Ġstill": 2053, "Ġprovid": 2054, "Ġassert": 2055, "med": 2056, "Ġcap": 2057, "usiness": 2058, "Ġrep": 2059, "tings": 2060, "ved": 2061, ".N": 2062, "api": 2063, "OD": 2064, "Ġfield": 2065, "iven": 2066, "oto": 2067, "âĢľ": 2068, "col": 2069, "(x": 2070, "ght": 2071, "Result": 2072, "Code": 2073, ".is": 2074, "link": 2075, "Ġcour": 2076, "An": 2077, "Ġteam": 2078, "ĉint": 2079, "ift": 2080, "Ġsecond": 2081, "Ġgoing": 2082, "Ġrange": 2083, "_E": 2084, "ness": 2085, "Ġfam": 2086, "Ġnil": 2087, "ĠCont": 2088, "ailable": 2089, "utes": 2090, "atab": 2091, "Ġfact": 2092, "Ġvis": 2093, "(&": 2094, "ĠAN": 2095, "Al": 2096, "title": 2097, "Ġandroid": 2098, "CE": 2099, "\\\"": 2100, "irt": 2101, "Ġwrit": 2102, "ĉm": 2103, "ftware": 2104, "ond": 2105, "Ġret": 2106, "osition": 2107, "Ġhome": 2108, "Ġleft": 2109, "args": 2110, "meric": 2111, "Ġdirect": 2112, "oci": 2113, "Pl": 2114, "As": 2115, "ret": 2116, "ado": 2117, "Of": 2118, "chn": 2119, "ĠGet": 2120, "ee": 2121, "ross": 2122, "();": 2123, "____": 2124, ".ph": 2125, "It": 2126, "oute": 2127, "Ġexper": 2128, "chool": 2129, "www": 2130, "},": 2131, "Ġallow": 2132, "ĠÂ": 2133, "())": 2134, "size": 2135, "ism": 2136, "ai": 2137, "tract": 2138, "ane": 2139, "...ĊĊ": 2140, "context": 2141, "Ġbeg": 2142, "CH": 2143, "Ġpage": 2144, "hip": 2145, "no": 2146, "core": 2147, "sp": 2148, "Ġdifferent": 2149, "iable": 2150, "ĠMe": 2151, "_IN": 2152, "button": 2153, "ĠIs": 2154, "ervices": 2155, "Ġca": 2156, "Ġaround": 2157, "App": 2158, "ration": 2159, "Ġrece": 2160, "Ġreally": 2161, "Ġimage": 2162, "Ġtarget": 2163, "Ġdep": 2164, "opyright": 2165, "tra": 2166, "ingle": 2167, "ital": 2168, "Layout": 2169, "Ġboth": 2170, "Override": 2171, "arm": 2172, "=>": 2173, "aterial": 2174, "iled": 2175, "Ġput": 2176, "Qu": 2177, "ung": 2178, "map": 2179, "ĉĉĉĉĉĉĉĉ": 2180, "Ġlevel": 2181, "Component": 2182, "book": 2183, "creen": 2184, "_RE": 2185, "Ġconfig": 2186, "ãģ": 2187, "Or": 2188, ".data": 2189, "Ġdocument": 2190, "\",\"": 2191, "tribute": 2192, "ux": 2193, "Log": 2194, "ference": 2195, "post": 2196, "_e": 2197, "Ġlocal": 2198, "andom": 2199, "assert": 2200, "Val": 2201, "lected": 2202, "ina": 2203, "atabase": 2204, "Add": 2205, "Ġcontent": 2206, ".print": 2207, "signed": 2208, "ric": 2209, ".\"ĊĊ": 2210, "Ġfa": 2211, "!ĊĊ": 2212, "-f": 2213, "ived": 2214, "Ġquest": 2215, ".ex": 2216, "Ġfloat": 2217, "Ġdevelop": 2218, "Map": 2219, "ading": 2220, "Ġposs": 2221, "UE": 2222, "namespace": 2223, "_O": 2224, "ĉb": 2225, ".Get": 2226, ">(": 2227, "json": 2228, "etails": 2229, "Ġtoo": 2230, "Ġextends": 2231, "ĠNone": 2232, "Ġfore": 2233, "(String": 2234, "format": 2235, "Ġgreat": 2236, "inter": 2237, "cale": 2238, "ron": 2239, "iving": 2240, "Ent": 2241, "ency": 2242, "xt": 2243, "oy": 2244, "Ġmonth": 2245, "Ġhapp": 2246, "Ġsuper": 2247, "bar": 2248, "default": 2249, "_de": 2250, "ords": 2251, "ln": 2252, "({Ċ": 2253, "ĠInd": 2254, "ases": 2255, "Ġtitle": 2256, "Ġcontext": 2257, "oh": 2258, "-p": 2259, "Em": 2260, "Ġmet": 2261, "Test": 2262, "Ġlife": 2263, "_v": 2264, "ĠUS": 2265, "UI": 2266, "ocation": 2267, "md": 2268, "Ġ[Ċ": 2269, "Ġ]": 2270, "sw": 2271, "Ġincre": 2272, "script": 2273, "ential": 2274, "ways": 2275, ".de": 2276, "Ġsrc": 2277, "Ġcatch": 2278, "ĠAmeric": 2279, "//Ċ": 2280, "ĠĠĠĠĠĠĠĠĠĠĠĠĠĠ": 2281, "Ġpay": 2282, "plit": 2283, "âĢĶ": 2284, "Ġcoun": 2285, "obj": 2286, ".php": 2287, "Ġchange": 2288, "ething": 2289, "'re": 2290, "aster": 2291, "los": 2292, "lation": 2293, "ĠĠĊ": 2294, "Le": 2295, "Ã¤": 2296, "({": 2297, "ready": 2298, "ĠNo": 2299, "Ġposition": 2300, "Ġold": 2301, "Ġbook": 2302, "abled": 2303, "bug": 2304, "Hand": 2305, "};ĊĊ": 2306, "isplay": 2307, "aving": 2308, "Ġgover": 2309, "Ġversion": 2310, "System": 2311, "nect": 2312, "response": 2313, "Style": 2314, "Up": 2315, "angu": 2316, "Ġthree": 2317, "init": 2318, "ero": 2319, "Ġlaw": 2320, "endif": 2321, "Ġbase": 2322, "email": 2323, "(l": 2324, "_V": 2325, "Ġconf": 2326, "ATE": 2327, "Ġduring": 2328, "tes": 2329, "Ġconsole": 2330, "ĠPr": 2331, "Ġspe": 2332, "ves": 2333, "path": 2334, "ialog": 2335, "dition": 2336, "_to": 2337, "ards": 2338, "Ġagainst": 2339, "etwork": 2340, "ĠPh": 2341, "_L": 2342, "cur": 2343, "imit": 2344, "With": 2345, "Ġpower": 2346, "ium": 2347, "';ĊĊ": 2348, "Ġwom": 2349, "left": 2350, "ources": 2351, "atri": 2352, "ĠIm": 2353, "ĠMan": 2354, "orth": 2355, "${": 2356, "quals": 2357, "ese": 2358, "_size": 2359, "Ġiss": 2360, "otal": 2361, "-g": 2362, "ique": 2363, "rame": 2364, "Ġwidth": 2365, "erg": 2366, ")(": 2367, "ittle": 2368, "TR": 2369, "ĠThey": 2370, "ences": 2371, "rl": 2372, "ons": 2373, "Ġlabel": 2374, ".y": 2375, "-t": 2376, "update": 2377, "anel": 2378, "sc": 2379, ".to": 2380, "Ġproject": 2381, "Ã¼": 2382, "Ġelement": 2383, "Ġsuccess": 2384, "ĉĉĊ": 2385, ".sh": 2386, "ram": 2387, "ched": 2388, "())Ċ": 2389, "Ġ(Ċ": 2390, "Ġdate": 2391, "Ġtot": 2392, "_ST": 2393, "All": 2394, "ification": 2395, "ĉvar": 2396, "Ġtri": 2397, "chem": 2398, "my": 2399, "Ġbig": 2400, "ĠAd": 2401, "ĠAt": 2402, "ots": 2403, "num": 2404, "Act": 2405, "Ġmap": 2406, "era": 2407, "cope": 2408, ".$": 2409, ",âĢĿ": 2410, "Ġpop": 2411, "Ġfew": 2412, "Ġlen": 2413, "uid": 2414, "eters": 2415, "ules": 2416, "ÃŃ": 2417, "source": 2418, "https": 2419, "Ġdem": 2420, "Ġear": 2421, "################": 2422, "Ġmatch": 2423, "ories": 2424, "aces": 2425, "ĠCl": 2426, "Ġnode": 2427, "irc": 2428, "local": 2429, "unity": 2430, "};Ċ": 2431, "Ġanother": 2432, "<<": 2433, "ogle": 2434, "Ġsit": 2435, "ework": 2436, "TE": 2437, ".I": 2438, "NS": 2439, "ology": 2440, "ought": 2441, ".Cont": 2442, ">>": 2443, "Ġcare": 2444, "state": 2445, "ĉprivate": 2446, "Ġeffect": 2447, "++)": 2448, "_file": 2449, "ending": 2450, "Line": 2451, "For": 2452, "ior": 2453, "ĠSc": 2454, "Ġfun": 2455, ".Size": 2456, "ĉelse": 2457, "])": 2458, "start": 2459, "vious": 2460, "Ġ},": 2461, "ours": 2462, "Ġleg": 2463, "Ġservice": 2464, "Ġsince": 2465, "iron": 2466, "Label": 2467, "Ġnon": 2468, "Ġlos": 2469, "iction": 2470, "Ġfull": 2471, "acter": 2472, "board": 2473, "gress": 2474, "Ġturn": 2475, "ither": 2476, ".size": 2477, "Ġbody": 2478, "resh": 2479, "eturn": 2480, "(_": 2481, "yles": 2482, "ormal": 2483, "pi": 2484, "Ġsomething": 2485, "!--": 2486, "uint": 2487, "Ġprodu": 2488, "Ġstand": 2489, "Ġproble": 2490, "Ġavailable": 2491, "mt": 2492, "ĠBl": 2493, "Ġ...": 2494, "Ġblock": 2495, "Input": 2496, "Ġkeep": 2497, "Count": 2498, "open": 2499, "Ġ['": 2500, "Ġthrow": 2501, "uilder": 2502, "Action": 2503, "Ġthings": 2504, "True": 2505, "Ġurl": 2506, "ĠBo": 2507, "printf": 2508, "Ġred": 2509, "js": 2510, ".create": 2511, "ĠOr": 2512, "Status": 2513, "Instance": 2514, "Ġcontrol": 2515, "Ġcome": 2516, "Ġcustom": 2517, "location": 2518, "model": 2519, "ĠčĊ": 2520, "Ġsource": 2521, "Ġeas": 2522, ".out": 2523, "]ĊĊ": 2524, "oney": 2525, "Ġawait": 2526, "Ġpartic": 2527, "AP": 2528, "ublish": 2529, "odes": 2530, "_pro": 2531, "ply": 2532, "riter": 2533, "Ġprov": 2534, "Ġmill": 2535, "HT": 2536, "])Ċ": 2537, "Ġchang": 2538, "Ġask": 2539, "ĠĠĠĠĠĠĠĠĠĠĠĠĠĠĠĠĠĠĠĠĠ": 2540, "Ġoutput": 2541, "Ġemail": 2542, ".push": 2543, "Ġ}čĊčĊ": 2544, "ination": 2545, "atrix": 2546, "Table": 2547, "uccess": 2548, "]);Ċ": 2549, "ĠĠĠĠĠĠĠĠĠĠĠĠĠĠĠĠĠĠĠĠĠĠĠĠĠĠĠĠĠĠĠĠĠĠĠĠĠĠĠ": 2550, "Ġdisc": 2551, "([": 2552, "Ġbusiness": 2553, "height": 2554, ".html": 2555, "ta": 2556, "field": 2557, "Ġrequired": 2558, "_R": 2559, "Ġgovern": 2560, "}čĊčĊ": 2561, "lex": 2562, ".,": 2563, "ĠSet": 2564, "urch": 2565, "///": 2566, "ts": 2567, "af": 2568, "Ġmight": 2569, "istory": 2570, "Str": 2571, "Ġnever": 2572, "Response": 2573, "arse": 2574, "ada": 2575, "ĠHow": 2576, "Ġ*)": 2577, "Ġ;": 2578, "Ġhard": 2579, "Ad": 2580, "Ġintern": 2581, "used": 2582, "(data": 2583, "mod": 2584, "annel": 2585, "Ġnp": 2586, "ugg": 2587, "Ġ/>Ċ": 2588, "Ġcalled": 2589, "body": 2590, "Ġcho": 2591, "(r": 2592, "_set": 2593, "ird": 2594, "Ġ>=": 2595, "Ġ};Ċ": 2596, "Ġoptions": 2597, "ĠGener": 2598, "Ġheight": 2599, "Point": 2600, "You": 2601, "ety": 2602, "Click": 2603, "Ġsmall": 2604, "Ġide": 2605, "Ġaccess": 2606, "anguage": 2607, "Ġprotected": 2608, "Ġjob": 2609, "ĠThere": 2610, "Def": 2611, "Ġaddress": 2612, "Ġuint": 2613, "Not": 2614, "oo": 2615, "aps": 2616, "<div": 2617, "ained": 2618, "atur": 2619, "Ġsum": 2620, "-w": 2621, "ĠDate": 2622, "Ġlittle": 2623, "Ġfri": 2624, "YPE": 2625, "Ġport": 2626, "eh": 2627, "pring": 2628, "_path": 2629, "Ġstatus": 2630, "aim": 2631, "bool": 2632, "Ġappe": 2633, "Ġos": 2634, ".name": 2635, "ension": 2636, "_G": 2637, "Ġupdate": 2638, "Config": 2639, "aff": 2640, "ERR": 2641, "Ġ<=": 2642, "ately": 2643, "#if": 2644, "uction": 2645, "ĠTe": 2646, "Ġlink": 2647, "ĠUser": 2648, ".find": 2649, ".org": 2650, "me": 2651, "Ġgiven": 2652, "Out": 2653, "#endif": 2654, "Ġbetter": 2655, "Page": 2656, "Ġfeel": 2657, "enn": 2658, "ML": 2659, "Ġalready": 2660, "Ġincluding": 2661, "oogle": 2662, "ru": 2663, "ically": 2664, "prop": 2665, "lean": 2666, "outer": 2667, "Ġalways": 2668, "ording": 2669, "If": 2670, "orage": 2671, "Ġparent": 2672, "vis": 2673, "ĉĉĉĉĉĉĉ": 2674, "Ġgot": 2675, "stand": 2676, "Ġless": 2677, "/s": 2678, "ĠAss": 2679, "apt": 2680, "ired": 2681, "ĠAdd": 2682, "Ġaccount": 2683, "ploy": 2684, "Ġder": 2685, "resent": 2686, "Ġlot": 2687, "Ġvalid": 2688, "ĉd": 2689, "Ġbit": 2690, "ponents": 2691, "Ġfollowing": 2692, "_ex": 2693, "SON": 2694, "Ġsure": 2695, "ocial": 2696, "Ġprom": 2697, "erties": 2698, "header": 2699, ".pro": 2700, "Ġboolean": 2701, "Ġsearch": 2702, "ken": 2703, "Ġorig": 2704, "Ġer": 2705, "Ed": 2706, "EM": 2707, "aut": 2708, "ling": 2709, "ality": 2710, "ById": 2711, "bed": 2712, "ĉcase": 2713, "ether": 2714, "posit": 2715, "Ġinvest": 2716, "ĠOR": 2717, "Ġsays": 2718, "mission": 2719, "AME": 2720, "Ġtemp": 2721, "oad": 2722, "Ġrest": 2723, "info": 2724, "Ġinterest": 2725, "Arg": 2726, "Ġperform": 2727, "pons": 2728, "ĠView": 2729, "Ġver": 2730, "lib": 2731, "(const": 2732, "Util": 2733, "Listener": 2734, "arge": 2735, "Ġmult": 2736, "Ġdie": 2737, "Ġsite": 2738, "../../": 2739, "EL": 2740, "Ġvalues": 2741, "Ġ})Ċ": 2742, "pen": 2743, "No": 2744, "icro": 2745, "Ġbeh": 2746, "Ġ'./": 2747, "acy": 2748, "rec": 2749, "()->": 2750, "ĉĠĠĠ": 2751, "\"))": 2752, "Content": 2753, "_W": 2754, "plement": 2755, "Ġwon": 2756, "Ġvideo": 2757, "adi": 2758, "point": 2759, "%%": 2760, "Ġgl": 2761, "erved": 2762, "viron": 2763, "IF": 2764, "uted": 2765, "ãĥ": 2766, "'m": 2767, "Ġcert": 2768, "Ġprof": 2769, "Ġcell": 2770, "ari": 2771, "Ġplayer": 2772, "ais": 2773, "Ġcost": 2774, "Ġhum": 2775, "(R": 2776, "Ġoffic": 2777, "ks": 2778, ".text": 2779, "atures": 2780, "Ġtotal": 2781, "Ġ*/ĊĊ": 2782, "ope": 2783, "Ġstat": 2784, "UM": 2785, "Ġload": 2786, "ights": 2787, "Ġclear": 2788, "uro": 2789, "Ġtechn": 2790, "upport": 2791, "IR": 2792, "Ġrow": 2793, "Ġseem": 2794, "Ġq": 2795, "Ġshort": 2796, "ĠNot": 2797, "ipp": 2798, "Group": 2799, "section": 2800, "max": 2801, "irl": 2802, "Ġoverride": 2803, "Ġcompany": 2804, "Ġdone": 2805, "\");čĊ": 2806, "Ġgre": 2807, ".Re": 2808, "Ġbelie": 2809, "rist": 2810, "Ġhealth": 2811, "ANT": 2812, "()ĊĊ": 2813, "ĠBe": 2814, ".value": 2815, "ĠGr": 2816, "ottom": 2817, "Ġargs": 2818, "PT": 2819, "status": 2820, "func": 2821, "uments": 2822, "-h": 2823, "Number": 2824, ":čĊ": 2825, "ĠLog": 2826, "erver": 2827, "Ġ),Ċ": 2828, "ament": 2829, "Ġobj": 2830, "inc": 2831, "Ġchildren": 2832, "icy": 2833, "IZ": 2834, "ands": 2835, "ably": 2836, "Ġdistrib": 2837, "Ġcur": 2838, "erial": 2839, "Ġdays": 2840, "reated": 2841, "rect": 2842, "-l": 2843, "irm": 2844, "idden": 2845, "omb": 2846, "Ġinitial": 2847, ".js": 2848, "Ġâ": 2849, "Query": 2850, "Ġonline": 2851, "imal": 2852, ".con": 2853, "au": 2854, "Url": 2855, "control": 2856, "irection": 2857, "Ġinstance": 2858, "ORT": 2859, "ĠFr": 2860, "where": 2861, "Ġjavax": 2862, "Ġorgan": 2863, "apter": 2864, "Ġreason": 2865, "options": 2866, "ĠMar": 2867, "(a": 2868, "Ġwithin": 2869, ".âĢĿĊĊ": 2870, "ODE": 2871, "_DE": 2872, "admin": 2873, "ended": 2874, "Ġdesign": 2875, "ĠData": 2876, "une": 2877, "ĠFile": 2878, "root": 2879, "Ġcent": 2880, "Ġarr": 2881, "_add": 2882, "len": 2883, "page": 2884, ",'": 2885, "_str": 2886, "Ġbro": 2887, "ability": 2888, "outh": 2889, "/c": 2890, "pose": 2891, "irtual": 2892, "earch": 2893, "_url": 2894, "argin": 2895, "Http": 2896, "Ġschool": 2897, "ava": 2898, "Ġconsider": 2899, ".label": 2900, "ĠArray": 2901, "web": 2902, "opt": 2903, ".println": 2904, "ulation": 2905, "Ġfunc": 2906, "PL": 2907, "Ġ\"\\": 2908, "ĠText": 2909, "actory": 2910, "(function": 2911, "null": 2912, "Ġeng": 2913, "down": 2914, "Ġinclude": 2915, "ĠEn": 2916, "ĠDr": 2917, "Ġdb": 2918, "!!": 2919, "side": 2920, "Ġinit": 2921, "quired": 2922, "ĠShe": 2923, "Column": 2924, "react": 2925, "Ġann": 2926, "Ġstop": 2927, "Ġlater": 2928, "ĠThat": 2929, "ention": 2930, "df": 2931, "UG": 2932, "ILE": 2933, "Ġclient": 2934, "raft": 2935, "ffer": 2936, "POST": 2937, "elper": 2938, "Ġlove": 2939, "quote": 2940, "oud": 2941, "Ġjson": 2942, "Ġable": 2943, "Ġmen": 2944, "AX": 2945, "ĠCopyright": 2946, "Ã¶": 2947, "avig": 2948, "req": 2949, "Client": 2950, "});Ċ": 2951, ".Com": 2952, "erc": 2953, "ilt": 2954, "pecial": 2955, "_com": 2956, "room": 2957, ".Name": 2958, "Ġgive": 2959, "amb": 2960, "ike": 2961, "Ġcondition": 2962, "client": 2963, "ators": 2964, ":\"": 2965, "Ġcopy": 2966, "uture": 2967, "iversity": 2968, "ernal": 2969, "{{": 2970, "ĠCan": 2971, "ounc": 2972, "do": 2973, "Ġocc": 2974, "Ġappro": 2975, "thers": 2976, "ze": 2977, "Ġeither": 2978, "ĠFl": 2979, "Ġimportant": 2980, "Ġlead": 2981, "attr": 2982, "ART": 2983, "Equal": 2984, "Ġda": 2985, "etch": 2986, "entity": 2987, "Ġfamily": 2988, "adding": 2989, "Ġoption": 2990, "Ġexist": 2991, "ica": 2992, "ĠObject": 2993, "'ve": 2994, "vers": 2995, "itional": 2996, "output": 2997, "ĠTrue": 2998, "ĠOF": 2999, "_time": 3000, "Ġoffer": 3001, "Ġ});ĊĊ": 3002, "HER": 3003, "egin": 3004, "\"\"": 3005, "Ġwater": 3006, "Ġche": 3007, "ĠMy": 3008, "ored": 3009, "Ġstep": 3010, "ances": 3011, "CK": 3012, "AY": 3013, "à¸": 3014, "struction": 3015, "(C": 3016, "ouch": 3017, "Stream": 3018, "active": 3019, "ama": 3020, "Entity": 3021, "product": 3022, "(){Ċ": 3023, "Ġgovernment": 3024, "ĠID": 3025, "ajor": 3026, "And": 3027, "Ġdisplay": 3028, "Ġtimes": 3029, "Ġfour": 3030, "Ġfar": 3031, "Ġpresent": 3032, "ĠNS": 3033, "Ġ\\Ċ": 3034, "uest": 3035, "Ġbas": 3036, "echo": 3037, "child": 3038, "ifier": 3039, "Handler": 3040, "Ġlib": 3041, "Property": 3042, "translation": 3043, "Ġroom": 3044, "Ġonce": 3045, "Ġ[]": 3046, "center": 3047, "================================": 3048, "Ġresults": 3049, "Ġcontinue": 3050, "Ġtalk": 3051, "_get": 3052, "Ġgrow": 3053, ".sw": 3054, "eb": 3055, "ĠPublic": 3056, "OP": 3057, "ecute": 3058, "ols": 3059, "Ġ**": 3060, "\");ĊĊ": 3061, "Ġmass": 3062, "ured": 3063, ".class": 3064, "omic": 3065, "Ġmean": 3066, "ips": 3067, "Ġaut": 3068, ");čĊčĊ": 3069, "Ġuntil": 3070, "Ġmarket": 3071, "Ġarea": 3072, "uit": 3073, "Ġlength": 3074, "ĠWith": 3075, "structor": 3076, "event": 3077, "\"><": 3078, "ĠSp": 3079, "IV": 3080, "Ġmus": 3081, "iff": 3082, "Ġkind": 3083, "author": 3084, "ounds": 3085, "mb": 3086, "_key": 3087, "width": 3088, "pository": 3089, "Ġlight": 3090, "uk": 3091, "Row": 3092, "ohn": 3093, "alf": 3094, "vironment": 3095, "apper": 3096, "ollections": 3097, "Ġside": 3098, "_info": 3099, "Ġexample": 3100, "imary": 3101, "Ġwr": 3102, "Ġcamp": 3103, "cribe": 3104, "\"/": 3105, "Ġmiss": 3106, "way": 3107, "Ġbased": 3108, "Ġplan": 3109, "Vis": 3110, "omain": 3111, "unk": 3112, "Ġaway": 3113, "UP": 3114, "<T": 3115, "OS": 3116, "iod": 3117, "ĠMon": 3118, "âĢĻre": 3119, "Ġlik": 3120, "Ã§": 3121, "ively": 3122, ".v": 3123, "imer": 3124, "izer": 3125, "Sub": 3126, "Ġbutton": 3127, "ĠUp": 3128, "Ġexperience": 3129, "CL": 3130, "Ġrender": 3131, "_value": 3132, "Ġnear": 3133, "URL": 3134, "alt": 3135, "Ġcountry": 3136, "ibility": 3137, "(),Ċ": 3138, "ead": 3139, "Ġauthor": 3140, "Ġspecific": 3141, "base": 3142, "(name": 3143, "ones": 3144, "ĠDo": 3145, "Ġalong": 3146, "year": 3147, "Ġexpress": 3148, ".'": 3149, "env": 3150, "Ġbegin": 3151, "Ġsoftware": 3152, "Ġimp": 3153, "Ġwin": 3154, "Ã³n": 3155, "Ġthing": 3156, "Trans": 3157, "ĠTHE": 3158, "Ġ<?": 3159, "Ġwhy": 3160, "Ġdoesn": 3161, "ij": 3162, "ging": 3163, "ĉg": 3164, "Ġsingle": 3165, "offset": 3166, "arning": 3167, "ograph": 3168, "ley": 3169, "_count": 3170, "Ġanal": 3171, "create": 3172, "/m": 3173, "ĠReg": 3174, "unch": 3175, "=$": 3176, "isk": 3177, "Ġrights": 3178, "(M": 3179, "Ġ\"\"\"Ċ": 3180, "aper": 3181, ".model": 3182, "Ġpo": 3183, "empty": 3184, "artment": 3185, "Ġant": 3186, "ĠWhen": 3187, "Ġwomen": 3188, "ĠEd": 3189, "Ġseason": 3190, "Ġdest": 3191, "Ã£": 3192, "(h": 3193, "Ġpossible": 3194, "Ġsever": 3195, "Ġbtn": 3196, "Ġdidn": 3197, "Ġsent": 3198, "Ġenc": 3199, "Ġcommand": 3200, "Ġ],Ċ": 3201, "_x": 3202, "Ġrecent": 3203, "olution": 3204, "vector": 3205, "ĠBy": 3206, "ĠMay": 3207, "ĠAct": 3208, "»¿": 3209, "Ġmoney": 3210, "INT": 3211, "bsite": 3212, "ĉp": 3213, ".čĊ": 3214, "sl": 3215, "attern": 3216, "ĠClass": 3217, "Ġtold": 3218, "udio": 3219, "current": 3220, "Ġequ": 3221, "Ġauto": 3222, "ĠState": 3223, "da": 3224, "msg": 3225, "));ĊĊ": 3226, "Ġworking": 3227, "Ġquery": 3228, "ĠBr": 3229, "Ġwindow": 3230, "auth": 3231, "only": 3232, "ĉt": 3233, "Ġleast": 3234, "agn": 3235, "Ġexpl": 3236, "itter": 3237, "aring": 3238, "Ġcolumn": 3239, "ĠGeneral": 3240, "\":\"": 3241, "eral": 3242, "rior": 3243, "Ġrecord": 3244, "IB": 3245, "EX": 3246, "Ġdat": 3247, "Ġmaking": 3248, "ued": 3249, "ĠCar": 3250, "emp": 3251, "\".": 3252, "ĠMed": 3253, "Ġclose": 3254, "Ġpercent": 3255, "Ġpast": 3256, "(g": 3257, ":(": 3258, "Ġwrite": 3259, "Ġmove": 3260, "Ġpat": 3261, "Control": 3262, ".To": 3263, "Ġvi": 3264, "*/Ċ": 3265, "inate": 3266, "'ll": 3267, "aged": 3268, "Null": 3269, "Ġspecial": 3270, "IZE": 3271, "Ġcity": 3272, "/*Ċ": 3273, "ĠEng": 3274, "ixed": 3275, "inary": 3276, "py": 3277, "Ġeff": 3278, "ario": 3279, "Ġtell": 3280, "avor": 3281, "Ġselect": 3282, "level": 3283, "imum": 3284, "oper": 3285, "Builder": 3286, "IP": 3287, "'),Ċ": 3288, "esc": 3289, "Ġfont": 3290, "\";ĊĊ": 3291, "ĠAm": 3292, "ished": 3293, "ills": 3294, "Inter": 3295, "OW": 3296, "Ġcourse": 3297, "Ġlate": 3298, "iddle": 3299, "Ġamount": 3300, "Ġasync": 3301, "ino": 3302, "cul": 3303, "Ġì": 3304, "andle": 3305, "_user": 3306, "Ġben": 3307, "ĠCal": 3308, "Ġ$_": 3309, "ĠRep": 3310, "Ġenough": 3311, "Token": 3312, ".user": 3313, "(j": 3314, "Sc": 3315, "Width": 3316, "now": 3317, "atform": 3318, "Ġlooking": 3319, "Ġhold": 3320, "Module": 3321, "ITY": 3322, "vo": 3323, "ison": 3324, ".Data": 3325, "yc": 3326, "Ġpot": 3327, "ĠTrump": 3328, "idual": 3329, "ides": 3330, "rt": 3331, "Ġproperty": 3332, "ĠĠĠĠĠĠĠĠĠĠĠĠĠĠĠĠĠĠĠĠĠĠĠĠĠĠĠĠĠĠĠĠĠĠĠĠĠĠĠĠĠĠĠ": 3333, "amework": 3334, "go": 3335, "Ġlow": 3336, "Ġpara": 3337, "Ġprice": 3338, "ury": 3339, "Ġtoday": 3340, "roy": 3341, "Ġ'/": 3342, "Ġpolit": 3343, "Ġ''": 3344, "ymb": 3345, "Ph": 3346, "Ġadv": 3347, "Ġattack": 3348, "ĠSte": 3349, "ROM": 3350, "ana": 3351, "Ġmeans": 3352, "Ġstory": 3353, "ids": 3354, "aken": 3355, "Ġmeet": 3356, "Ġmom": 3357, "ĠâĢĺ": 3358, "Ġ?>": 3359, "Ġden": 3360, "obile": 3361, "change": 3362, "ĠĠĠĠĠĠĠĠĠĠĠĠĊ": 3363, "ici": 3364, "na": 3365, "ĠForm": 3366, "Ġsort": 3367, "Select": 3368, "pare": 3369, "Ġthought": 3370, "_con": 3371, "Ġtask": 3372, "ocus": 3373, "ĠDE": 3374, "ĠMin": 3375, "Ġopt": 3376, "ĉbreak": 3377, "umer": 3378, "KE": 3379, "then": 3380, "Ġdet": 3381, "ĠTest": 3382, "ports": 3383, "Ġreview": 3384, "('/": 3385, "move": 3386, "Ġswitch": 3387, "ERT": 3388, "patch": 3389, "annot": 3390, "ãĤ": 3391, "Ġabove": 3392, "itive": 3393, "Ġquestion": 3394, "ĠQu": 3395, "ãĢĤĊĊ": 3396, "gle": 3397, "Ġword": 3398, "Ġprovide": 3399, "ĠReturn": 3400, "Ġresearch": 3401, "Ã£o": 3402, "ustr": 3403, "Ġpublish": 3404, "chema": 3405, "}}": 3406, "ĠCON": 3407, "-in": 3408, "allback": 3409, "Ġcover": 3410, "\\\\": 3411, "color": 3412, "ĠIS": 3413, "Ġwhether": 3414, "imate": 3415, "isc": 3416, "Bar": 3417, "Ġdiv": 3418, "Be": 3419, "ourn": 3420, "Ġhaving": 3421, "lem": 3422, "player": 3423, "abs": 3424, "amera": 3425, "ney": 3426, "Ġexc": 3427, "gether": 3428, "plied": 3429, "ao": 3430, "[$": 3431, "Ġ++": 3432, "ipe": 3433, "show": 3434, "/d": 3435, "[:": 3436, "agement": 3437, "lev": 3438, "_ID": 3439, "rary": 3440, "ades": 3441, "_se": 3442, "ause": 3443, "Ġemploy": 3444, "Ġ*/čĊ": 3445, "Ġfre": 3446, "Ġ'@": 3447, "Ġcomplet": 3448, "Ġlarge": 3449, "ral": 3450, "\\x": 3451, "Ġfac": 3452, "<String": 3453, "Ġcreated": 3454, "uper": 3455, ".state": 3456, "Ġhost": 3457, "eneric": 3458, "/b": 3459, "(!": 3460, "while": 3461, "ias": 3462, "BUG": 3463, "Ġ);ĊĊ": 3464, "Ġrole": 3465, "Reg": 3466, "ĠColor": 3467, "Start": 3468, "Ġporn": 3469, "top": 3470, "Ġweb": 3471, "Ġdev": 3472, "Ġdeal": 3473, "++)Ċ": 3474, "Integer": 3475, "position": 3476, ".on": 3477, "Ġ(\"": 3478, "ä¸": 3479, "Ġproblem": 3480, "sv": 3481, "Ġpress": 3482, "ABLE": 3483, "ATION": 3484, "ĠSee": 3485, "anch": 3486, "Ġthough": 3487, "leep": 3488, "Ġ<!--": 3489, "Ġpoints": 3490, "ĠĠĠĠĠĠĠĠĠĠĠĠĠĠĠĠĠĠĠĠĠĠĠĠĠ": 3491, ".J": 3492, "Ġ::": 3493, "ptr": 3494, "DB": 3495, "++;Ċ": 3496, ".png": 3497, "node": 3498, "soft": 3499, "pond": 3500, "Ġever": 3501, "----------------------------------------------------------------": 3502, "Menu": 3503, "('#": 3504, "Ġservices": 3505, "pg": 3506, "})Ċ": 3507, "params": 3508, "Ġactually": 3509, "Ġ\"/": 3510, "Empty": 3511, "Method": 3512, "Ġident": 3513, "unic": 3514, "Ġmillion": 3515, "Ġaff": 3516, "style": 3517, "Ġconc": 3518, "ios": 3519, "ignment": 3520, "ULT": 3521, "Pr": 3522, "\";čĊ": 3523, "Ġunderstand": 3524, "uary": 3525, "Ġhappen": 3526, "Ġserver": 3527, "ĠCo": 3528, "SC": 3529, "Ġles": 3530, "Ġfiles": 3531, "Grid": 3532, "sql": 3533, "Ġoften": 3534, "Ġinfo": 3535, "_tr": 3536, "src": 3537, "ony": 3538, "Ġspace": 3539, "umb": 3540, "Ġpassword": 3541, "Ġstore": 3542, ",ĊĊ": 3543, "ĠWhat": 3544, "ged": 3545, "ĠFalse": 3546, "Us": 3547, "swer": 3548, "_index": 3549, "Ġformat": 3550, "most": 3551, "sm": 3552, "New": 3553, "Ġdetails": 3554, "Ġprob": 3555, "ĠAND": 3556, "()čĊ": 3557, "ilar": 3558, "Ġ${": 3559, "rypt": 3560, ".Collections": 3561, "$this": 3562, "ĠFree": 3563, "_of": 3564, "(false": 3565, "dated": 3566, "Ġ>>": 3567, "Ġface": 3568, "CTION": 3569, "Ġsave": 3570, "Ġtyp": 3571, "dev": 3572, "(\"#": 3573, "AGE": 3574, "container": 3575, "edit": 3576, "QL": 3577, "Ġitems": 3578, "Ġsocial": 3579, "ien": 3580, "ĠReact": 3581, ").ĊĊ": 3582, "Ġmar": 3583, "Ġredu": 3584, "ĠRE": 3585, ".put": 3586, "Ġmajor": 3587, "Cell": 3588, "next": 3589, "Ġexpected": 3590, "Ġyet": 3591, "Ġindiv": 3592, "tributes": 3593, "atis": 3594, "amed": 3595, "Ġfood": 3596, "Source": 3597, "(string": 3598, "Ġ+Ċ": 3599, "ites": 3600, "dr": 3601, "Ġmembers": 3602, "Ġcomb": 3603, "items": 3604, "ĠPer": 3605, "TH": 3606, "=True": 3607, "Ġbar": 3608, "_SE": 3609, "comm": 3610, "(w": 3611, ")ĊĊĊ": 3612, "Ġsend": 3613, "Ġinc": 3614, "unsigned": 3615, "FA": 3616, "Ġparams": 3617, "apping": 3618, "ros": 3619, "ugin": 3620, "fa": 3621, "Ġconnection": 3622, "Ġ};ĊĊ": 3623, "Ġbecome": 3624, "Mode": 3625, "Ġev": 3626, "Ġdiff": 3627, "ĠUnited": 3628, "Height": 3629, "fully": 3630, "images": 3631, "Ġmakes": 3632, "Ġglobal": 3633, "Ġcontact": 3634, "':Ċ": 3635, "Ġabs": 3636, "float": 3637, "Ġexcept": 3638, "ĠPol": 3639, "Child": 3640, "typ": 3641, "Ġcertain": 3642, "iÃ³n": 3643, "OUT": 3644, "Ġimpro": 3645, "iles": 3646, "Ġ-->Ċ": 3647, "ĠPart": 3648, "values": 3649, "oss": 3650, "/**": 3651, "ilit": 3652, "ĠEvent": 3653, "curity": 3654, "ster": 3655, "Ġcharacter": 3656, "Ġnews": 3657, "Ġ\",": 3658, "Ġdevice": 3659, "cel": 3660, "login": 3661, "heet": 3662, "Default": 3663, "@\"": 3664, "ĉĠ": 3665, "click": 3666, "(value": 3667, "ĠAb": 3668, "Ġprevious": 3669, "ERROR": 3670, "ocal": 3671, "Ġmaterial": 3672, "Ġbelow": 3673, "ĠChrist": 3674, "Ġmedia": 3675, "cover": 3676, "ĠUI": 3677, "Ġfail": 3678, "Ġblack": 3679, "Ġcomponent": 3680, "ĠAmerican": 3681, "Ġadded": 3682, "Ġbuy": 3683, "stit": 3684, "Ġcame": 3685, "Ġdelete": 3686, "property": 3687, "oding": 3688, "Ġcard": 3689, "rops": 3690, "Ġhttps": 3691, "Ġroot": 3692, "Ġhandle": 3693, "CC": 3694, "Back": 3695, "emplate": 3696, "Ġgetting": 3697, "_by": 3698, "mail": 3699, "_sh": 3700, ".assert": 3701, "ĠDec": 3702, "(true": 3703, "Ġcomput": 3704, "Ġclaim": 3705, "'=>": 3706, "ĠSub": 3707, "Ġair": 3708, "ops": 3709, "nav": 3710, "ements": 3711, "(id": 3712, "Ġenter": 3713, "anged": 3714, "End": 3715, "Ġlocation": 3716, "Ġnight": 3717, "Ġdoing": 3718, "ĠRed": 3719, "lin": 3720, "}ĊĊĊ": 3721, "vider": 3722, "Ġpick": 3723, "Ġwatch": 3724, "essages": 3725, "Ġhuman": 3726, "Ġdam": 3727, "pend": 3728, "dir": 3729, "Ġtax": 3730, "Ġgirl": 3731, "reet": 3732, "Ġbox": 3733, "Ġstrong": 3734, "(v": 3735, "rel": 3736, "Ġinterface": 3737, "Ġmsg": 3738, "fect": 3739, "_at": 3740, "Ġhouse": 3741, "Ġtrack": 3742, "');ĊĊ": 3743, "je": 3744, "ĠJohn": 3745, "istr": 3746, "(S": 3747, "ube": 3748, "Ġce": 3749, "itted": 3750, "VER": 3751, "*)": 3752, "parent": 3753, "Ġapplication": 3754, "any": 3755, ".swing": 3756, "Ġpack": 3757, "\\u": 3758, "Ġpract": 3759, "Ġsection": 3760, "ctx": 3761, "Ġunsigned": 3762, ".Point": 3763, "ĠOne": 3764, "Ä±": 3765, "iple": 3766, "aid": 3767, "Vector": 3768, "byte": 3769, "Ġwait": 3770, "ĠÃł": 3771, "Ã¥": 3772, "Ġtogether": 3773, "Ġthrows": 3774, "FO": 3775, "'))": 3776, "host": 3777, "ising": 3778, ".view": 3779, "Ġterms": 3780, "framework": 3781, "-r": 3782, "Ġapply": 3783, "Ġsession": 3784, "Options": 3785, "uggest": 3786, "Ġothers": 3787, "witter": 3788, "Ġfund": 3789, "Init": 3790, "__(": 3791, "ensor": 3792, "GET": 3793, "Ġseveral": 3794, "ii": 3795, "[j": 3796, "IO": 3797, "Ġtemplate": 3798, "Position": 3799, "Ġecon": 3800, "achine": 3801, "Ġil": 3802, ".spring": 3803, "main": 3804, "elt": 3805, "iment": 3806, "Rec": 3807, "mm": 3808, "ĠUniversity": 3809, "ursor": 3810, "ĠĠĠĠĠĠĠĠĠĠĠĠĠĠĠĠĠĠĠĠ": 3811, "GL": 3812, "icture": 3813, "ithub": 3814, "cer": 3815, "cast": 3816, "From": 3817, "ales": 3818, "Ġsubject": 3819, "password": 3820, "ny": 3821, "Ġesc": 3822, ".write": 3823, "ï¼Į": 3824, "What": 3825, ".H": 3826, "Ġhistory": 3827, "ĠFe": 3828, "Ġindividual": 3829, "unit": 3830, "Ġ-->": 3831, "Ġdu": 3832, "IST": 3833, "Ġusers": 3834, "fs": 3835, "false": 3836, "unt": 3837, "Title": 3838, "Ġmot": 3839, "Ġfuture": 3840, "ached": 3841, "Ġstarted": 3842, "Ġmode": 3843, "Ġ'<": 3844, "_array": 3845, "Ġax": 3846, "'];Ċ": 3847, "ires": 3848, "There": 3849, "ught": 3850, "tml": 3851, "posed": 3852, "icult": 3853, "Ġtook": 3854, "Ġgames": 3855, "Ġ}}": 3856, "Ġ?>Ċ": 3857, "Ġproducts": 3858, "Is": 3859, "Ġbad": 3860, "ĠDes": 3861, ".path": 3862, "'ĊĊ": 3863, "ĠPost": 3864, "avel": 3865, "(:": 3866, "Ġneeds": 3867, "Ġknown": 3868, "Fl": 3869, "Ġexec": 3870, "Ġseen": 3871, "ume": 3872, "Ġborder": 3873, "Ġlive": 3874, "temp": 3875, "Per": 3876, "Ġvariable": 3877, "iet": 3878, "ĠDef": 3879, "Ġge": 3880, "eme": 3881, "_back": 3882, "first": 3883, "Ġprovided": 3884, "////////////////////////////////": 3885, "Ġfilename": 3886, "Ġhope": 3887, "uly": 3888, "auto": 3889, "find": 3890, "_string": 3891, "btn": 3892, "itude": 3893, "Attribute": 3894, "Ġyoung": 3895, ".txt": 3896, "Ġwebsite": 3897, "ĠProp": 3898, "Ġey": 3899, ">();Ċ": 3900, "ional": 3901, "ARR": 3902, "ictionary": 3903, "urther": 3904, ".</": 3905, "ALL": 3906, "Ġstudy": 3907, "ili": 3908, "Ġnetwork": 3909, "yl": 3910, "istance": 3911, "OK": 3912, "NU": 3913, "rest": 3914, "ĠST": 3915, "icrosoft": 3916, "Ġlimit": 3917, "Ġcut": 3918, "():Ċ": 3919, "Ġcou": 3920, "ogn": 3921, "Ġsizeof": 3922, "ival": 3923, "Ġwent": 3924, ".z": 3925, "Link": 3926, "Ġfire": 3927, "Ġacross": 3928, "Ġcommunity": 3929, "region": 3930, "NE": 3931, "Ref": 3932, "Ġofficial": 3933, "Ġvisit": 3934, "olve": 3935, "Ġreceived": 3936, "Ġtoken": 3937, "Ġmonths": 3938, "Ġanim": 3939, "Ġparticular": 3940, "styles": 3941, "ico": 3942, "Ġess": 3943, ".Control": 3944, "ĠÃ©": 3945, "ball": 3946, "Ġlearn": 3947, "inding": 3948, "Var": 3949, "Ġdecl": 3950, "(err": 3951, "LECT": 3952, "One": 3953, "pha": 3954, "Ġ~": 3955, "fort": 3956, "asure": 3957, "Ġmind": 3958, "ĠEnd": 3959, "Check": 3960, "Ġquick": 3961, "\"),": 3962, "AND": 3963, "utions": 3964, "Base": 3965, "________": 3966, "Ġcomment": 3967, "INE": 3968, "âĢĻve": 3969, "But": 3970, "ĠEl": 3971, "ĠUs": 3972, "Ġadmin": 3973, "mark": 3974, "ĠName": 3975, "`Ċ": 3976, "ĠType": 3977, "amic": 3978, "pc": 3979, "loor": 3980, "FT": 3981, "Ġopp": 3982, "cket": 3983, ")->": 3984, "tx": 3985, "Ġpur": 3986, "uel": 3987, "ymbol": 3988, "uation": 3989, "anger": 3990, "Ġbackground": 3991, "ecess": 3992, "efined": 3993, "........": 3994, "Ġdescription": 3995, "Ġrepresent": 3996, "\"));Ċ": 3997, "pression": 3998, "rowser": 3999, "Ġseries": 4000, "wards": 4001, "($_": 4002, "aise": 4003, "Ġhot": 4004, "acity": 4005, "ries": 4006, "actions": 4007, "Create": 4008, "adio": 4009, "amples": 4010, "Ġoriginal": 4011, "ensive": 4012, "font": 4013, "stream": 4014, ".springframework": 4015, "server": 4016, "Ġbill": 4017, "ACK": 4018, "ilename": 4019, "Ġframe": 4020, "Ġ=Ċ": 4021, "Edit": 4022, "adius": 4023, "Ġdraw": 4024, "anks": 4025, "Ġdeter": 4026, "Ġcomes": 4027, "_int": 4028, "Ġforeach": 4029, "angle": 4030, "Ġelect": 4031, "pected": 4032, "Header": 4033, "istration": 4034, "False": 4035, "ĠGame": 4036, "Ġfilter": 4037, "Activity": 4038, "Ġlarg": 4039, "inition": 4040, "Ġ\"<": 4041, "ised": 4042, "Ġremove": 4043, "ĠTrans": 4044, "met": 4045, "see": 4046, "Format": 4047, "Command": 4048, "ĠEX": 4049, "None": 4050, "Ġfront": 4051, "ASE": 4052, "ĠRec": 4053, "oundation": 4054, "Ġvo": 4055, "=\\\"": 4056, "(*": 4057, "Change": 4058, ".Write": 4059, "group": 4060, "ients": 4061, "uy": 4062, "****************************************************************": 4063, "Ġdig": 4064, "hr": 4065, "(-": 4066, "Ġgen": 4067, "number": 4068, "vec": 4069, "urope": 4070, "entry": 4071, "LL": 4072, "Ġste": 4073, "Valid": 4074, "'],": 4075, "_param": 4076, "Ġselected": 4077, "Ġaccording": 4078, "ĠDis": 4079, "Ġutil": 4080, "Buffer": 4081, "_error": 4082, "Ġassoci": 4083, "_SIZE": 4084, "Ġwor": 4085, "Ġprintf": 4086, "rag": 4087, "Âł": 4088, "DD": 4089, "ĠVal": 4090, "Ġactiv": 4091, "Eng": 4092, "etime": 4093, "Ġvirtual": 4094, "aign": 4095, "aur": 4096, "ĠPres": 4097, "ĠException": 4098, "Ġanything": 4099, "ĠOff": 4100, "Ġhours": 4101, "Ġwar": 4102, "Args": 4103, "aging": 4104, "Ġmodels": 4105, "ĠTime": 4106, "Ob": 4107, "ams": 4108, "joy": 4109, "Ġearly": 4110, ".read": 4111, "Ġcenter": 4112, "ĠInitial": 4113, "Ġlanguage": 4114, "length": 4115, "xy": 4116, "Ġsn": 4117, "Ġinf": 4118, "Post": 4119, "Ġago": 4120, "Ġeasy": 4121, "_code": 4122, "ĠANY": 4123, "_ch": 4124, "Ġdownload": 4125, "(T": 4126, "aved": 4127, "âĢĵ": 4128, "Ġstudents": 4129, "Ġfig": 4130, "light": 4131, "xx": 4132, "Ġbuffer": 4133, "ĠDep": 4134, "ĠMath": 4135, "ITH": 4136, "Ġvari": 4137, "Ġdue": 4138, "Factory": 4139, "Ġpor": 4140, "Ġep": 4141, "otype": 4142, "Ġcannot": 4143, "Ġwhite": 4144, "<int": 4145, "tern": 4146, "Ġregister": 4147, "Ġpred": 4148, "clus": 4149, "_date": 4150, "Ġ/**": 4151, "Ġauth": 4152, "Ġ[]Ċ": 4153, "Ġperiod": 4154, "nown": 4155, "Ġvot": 4156, "Ġscreen": 4157, "'d": 4158, "Types": 4159, "Ġtmp": 4160, "ural": 4161, "Ġbenef": 4162, "_y": 4163, "Ġnet": 4164, "ĠStates": 4165, "']['": 4166, "ĠNe": 4167, "ĠNOT": 4168, "Ġneg": 4169, "Ġcommon": 4170, "scope": 4171, "Ġcred": 4172, "ges": 4173, "_TYPE": 4174, "Ġsuggest": 4175, "oom": 4176, ".ĊĊĊ": 4177, "Ġaccept": 4178, "Ġrandom": 4179, "erm": 4180, "ĠVector": 4181, "with": 4182, "TER": 4183, "(str": 4184, "Ġrespons": 4185, "Ġhit": 4186, ".Set": 4187, "grid": 4188, "ria": 4189, "Ġclick": 4190, "undle": 4191, "Case": 4192, "insert": 4193, "Utils": 4194, "Ġ\"\"\"": 4195, "Ġimplement": 4196, "atal": 4197, "tempt": 4198, "template": 4199, "ocr": 4200, "returns": 4201, "Ġplayers": 4202, "users": 4203, "edef": 4204, "ĠThese": 4205, "Ġamong": 4206, "Ġdeb": 4207, "ha": 4208, ".getElement": 4209, "Ġcirc": 4210, "Ġanswer": 4211, "Ġwalk": 4212, "Ġtreat": 4213, "ĠGe": 4214, "ĠCreate": 4215, "Ġage": 4216, "Ġreq": 4217, "OST": 4218, "angular": 4219, "Ġfive": 4220, "Ġdistributed": 4221, "Ġfriend": 4222, "TP": 4223, "Ġclean": 4224, "ows": 4225, ".Controls": 4226, "dis": 4227, "Ġwords": 4228, ".io": 4229, "zy": 4230, "Ġheader": 4231, "ĠCheck": 4232, "âĢĻm": 4233, "just": 4234, "holder": 4235, "=\"<?": 4236, "ĠGNU": 4237, "ĠCol": 4238, "imest": 4239, "entic": 4240, "{ĊĊ": 4241, "Ġtre": 4242, "last": 4243, "la": 4244, "ĠYork": 4245, "Lo": 4246, "Ġdiscuss": 4247, "ĠGod": 4248, "Ġissue": 4249, "rew": 4250, "Window": 4251, "Ġland": 4252, "Ġstream": 4253, "ĠPar": 4254, "Ġquality": 4255, "Par": 4256, "_num": 4257, "Ġsal": 4258, "elves": 4259, "ORD": 4260, "(user": 4261, "Ġworks": 4262, "Ġhalf": 4263, "enses": 4264, "vas": 4265, "Ġpolice": 4266, "(\"/": 4267, "ua": 4268, "Ġsimple": 4269, "Address": 4270, "Ġempty": 4271, "esh": 4272, "Update": 4273, "ĠCreated": 4274, "('.": 4275, ").Ċ": 4276, "ĠĠĠĠĠĠĠĠĠĠĠĠĠĠĠĠĠĠ": 4277, "Ġagre": 4278, "ĠFROM": 4279, "Ġcook": 4280, "Ġeverything": 4281, "ilities": 4282, ".status": 4283, "Ġrelations": 4284, "extern": 4285, "Ġnothing": 4286, "Ġrunning": 4287, "ĉvoid": 4288, "RI": 4289, "_a": 4290, "_CON": 4291, "por": 4292, ".sub": 4293, "require": 4294, "ĠCity": 4295, "ĠWest": 4296, "Ġmor": 4297, "store": 4298, "Equals": 4299, "oder": 4300, "Ġna": 4301, "Ġ[[": 4302, "Ġ('": 4303, "ĠDon": 4304, "ERS": 4305, "/p": 4306, ".json": 4307, "abor": 4308, "Ġsomeone": 4309, "_text": 4310, ".css": 4311, ".Tab": 4312, "ĠSome": 4313, "ato": 4314, "double": 4315, "Ġshare": 4316, "(void": 4317, "_dir": 4318, "Ġur": 4319, "Stack": 4320, "ĠWorld": 4321, ".X": 4322, "stract": 4323, "How": 4324, ".Generic": 4325, "icles": 4326, "Ġentry": 4327, "Ġchanges": 4328, "Ġpersonal": 4329, "(A": 4330, "Ġoffset": 4331, "_ptr": 4332, "Ġpie": 4333, "ĠJan": 4334, "-group": 4335, "module": 4336, "Items": 4337, "ĠHowever": 4338, "verage": 4339, ".Font": 4340, "Ġevents": 4341, ".min": 4342, "Ġinvol": 4343, "za": 4344, "Ġwhole": 4345, "Ġneeded": 4346, "Ġlikely": 4347, "rief": 4348, "ORM": 4349, "version": 4350, "Ġfight": 4351, "Ġein": 4352, "Frame": 4353, "gen": 4354, "ĠOut": 4355, "avigation": 4356, "Length": 4357, "illed": 4358, "quence": 4359, "Ġ!==": 4360, "ĠSoftware": 4361, "Ġwriting": 4362, "Ġrate": 4363, "'],Ċ": 4364, "Panel": 4365, "inner": 4366, "Ġ[\"": 4367, "Ġtw": 4368, "cd": 4369, "Ġ;Ċ": 4370, "_state": 4371, "ĠSm": 4372, "ĠMark": 4373, "))ĊĊ": 4374, "prot": 4375, "ĠMr": 4376, "method": 4377, "ustomer": 4378, "Icon": 4379, "Ġcorrect": 4380, "(object": 4381, "ĠMore": 4382, "Ġfall": 4383, "Ġvol": 4384, "Ġdevelopment": 4385, "ently": 4386, "Ġsi": 4387, "medi": 4388, "ving": 4389, "PP": 4390, "aker": 4391, "Ġindu": 4392, "Ġelif": 4393, "Ġpret": 4394, "Ġbelieve": 4395, "ns": 4396, "omet": 4397, "ĠIntern": 4398, "Rect": 4399, "So": 4400, ".error": 4401, "Read": 4402, "Ġfeatures": 4403, "Ġminutes": 4404, "---": 4405, "asing": 4406, "cret": 4407, "\">čĊ": 4408, ".annot": 4409, "Ġcollection": 4410, "'.": 4411, "Ġsimilar": 4412, "Ġtaken": 4413, "(\"%": 4414, "Order": 4415, "']Ċ": 4416, "-md": 4417, "ĠTH": 4418, "aced": 4419, "Ġisn": 4420, "/j": 4421, "Ġson": 4422, "graph": 4423, "ĠInteger": 4424, "Ġnecess": 4425, "reen": 4426, "Ġum": 4427, "Ġ\\<": 4428, "Ġmoment": 4429, "Ġbring": 4430, "Ġindic": 4431, "ysis": 4432, "Level": 4433, "verse": 4434, "urrenc": 4435, "_test": 4436, "Ġentire": 4437, "Down": 4438, "Ġ}ĊĊĊ": 4439, "(result": 4440, "ĠRead": 4441, "Ã¨": 4442, "Mod": 4443, "Ġtrying": 4444, "\"),Ċ": 4445, "Ġmember": 4446, "ĠCor": 4447, "ODO": 4448, "-control": 4449, "untime": 4450, "ĠSim": 4451, "Dialog": 4452, "plot": 4453, "_on": 4454, "Ġphys": 4455, "}/": 4456, "Ġnamespace": 4457, "ĉčĊ": 4458, "acc": 4459, "Player": 4460, "ARE": 4461, "Ġfoot": 4462, "Ġboard": 4463, "part": 4464, "Ġsus": 4465, "wise": 4466, "ĠMc": 4467, "Ġpush": 4468, "ATA": 4469, "Ġplease": 4470, "ried": 4471, "weet": 4472, "bit": 4473, "ided": 4474, "VE": 4475, "ĠSw": 4476, "UB": 4477, "Ġtypes": 4478, "edia": 4479, "Ġclos": 4480, "acebook": 4481, "When": 4482, "Ġedit": 4483, "igger": 4484, "Ġenerg": 4485, "Container": 4486, "Ġphot": 4487, "ĠCount": 4488, "ĠEurope": 4489, ".Is": 4490, "ĠRuss": 4491, "peed": 4492, "ĠStr": 4493, "Ġpy": 4494, "Ġcult": 4495, "Ġdefined": 4496, "ccount": 4497, "Ġobt": 4498, ".Location": 4499, "Ġthread": 4500, "ille": 4501, "Ġinstead": 4502, "strong": 4503, "ĠSec": 4504, "URE": 4505, "Ġidea": 4506, ".se": 4507, "emy": 4508, "selected": 4509, "Connection": 4510, "acing": 4511, "thread": 4512, ".next": 4513, "Ġcoll": 4514, "Ġfilm": 4515, "istic": 4516, "Ġcompet": 4517, "Ġconn": 4518, "though": 4519, "Ġcompan": 4520, "ocket": 4521, "Ġteach": 4522, "=(": 4523, "Ġphone": 4524, "Ġactive": 4525, "delete": 4526, "tries": 4527, "Ġmo": 4528, "Ġdeath": 4529, "});ĊĊ": 4530, "ocol": 4531, "Widget": 4532, "Ġarticle": 4533, "rodu": 4534, "andid": 4535, "ĠCr": 4536, "ka": 4537, "():": 4538, "lood": 4539, "ĉĉĉĊ": 4540, "Ġalmost": 4541, "Ġsell": 4542, "ervlet": 4543, "rip": 4544, "Unit": 4545, "Ġapplic": 4546, "Ġconnect": 4547, "Ġfeature": 4548, "Ġvia": 4549, "'),": 4550, "Ġlim": 4551, "ĠĠĠĠĠĠĠĠĠĠĠĠĠĠĠĠĠĠĠĠĠĠĠĠĠĠĠĠĠĠĠĠĠĠĠĠĠĠĠĠĠĠĠĠĠĠĠ": 4552, "ĠGu": 4553, "Engine": 4554, "Ġens": 4555, "Ġenvironment": 4556, "block": 4557, "HERE": 4558, "NULL": 4559, "gy": 4560, "tag": 4561, ")).": 4562, "exp": 4563, "Ġcompl": 4564, "Ġinstall": 4565, "Ġcomplete": 4566, "queue": 4567, "atural": 4568, "Ġgeneral": 4569, "thon": 4570, "Ġasked": 4571, "ores": 4572, "(res": 4573, "Ġreserved": 4574, "SP": 4575, "ĠâĢ¦": 4576, "ÅĤ": 4577, "Ġsignific": 4578, "Off": 4579, "ĠĠĠĠĠĠĠĠĠĠĠĠĠĠĠĠĠĠĠĠĠĠĠĠĠĠĠĠĠ": 4580, "ĠAg": 4581, "ĠJust": 4582, "ĠError": 4583, "Ġinfl": 4584, "adata": 4585, "Ġicon": 4586, "asks": 4587, "''": 4588, "_LO": 4589, "?.": 4590, "account": 4591, "Ġ(*": 4592, "')ĊĊ": 4593, "rap": 4594, "_var": 4595, "ĠFOR": 4596, "Ġparty": 4597, "ĠYour": 4598, "cat": 4599, "stry": 4600, ".new": 4601, "boot": 4602, "ĠNov": 4603, "Ġvector": 4604, "Ġnormal": 4605, "Ġfurther": 4606, "Repository": 4607, "Ġdatabase": 4608, "attle": 4609, "Ġmusic": 4610, "Ġspeed": 4611, "Ġdoc": 4612, "process": 4613, "IGHT": 4614, ".parse": 4615, "Ġtaking": 4616, "Ġviol": 4617, "ceed": 4618, "ĠAfter": 4619, "Ġforward": 4620, "Ġcrit": 4621, "\"/>Ċ": 4622, "rot": 4623, "Ġfailed": 4624, "efore": 4625, "Ġconcern": 4626, "oe": 4627, "ba": 4628, "Ġsender": 4629, "Ġterm": 4630, "has": 4631, "=\"#": 4632, "Ġpotential": 4633, "Num": 4634, "Ġpublished": 4635, ".close": 4636, "ĠImage": 4637, "straint": 4638, "UD": 4639, "ĠOb": 4640, "Ġprobably": 4641, "lim": 4642, "\":Ċ": 4643, "olume": 4644, "Ġconsum": 4645, "ague": 4646, "ensions": 4647, "Ġinvestig": 4648, "-year": 4649, "');": 4650, "-sm": 4651, "Ġenjoy": 4652, "orig": 4653, "ering": 4654, "cp": 4655, "leased": 4656, "plements": 4657, "Ġreturns": 4658, "pat": 4659, "BO": 4660, "ĠHouse": 4661, ".Label": 4662, "Ġweight": 4663, "ighb": 4664, "Ġconditions": 4665, "Ġexception": 4666, "description": 4667, "Ġtrad": 4668, "-to": 4669, "Ġ{}": 4670, "Ġmodule": 4671, "END": 4672, ".ap": 4673, ".props": 4674, "Ġconstructor": 4675, "aves": 4676, "Ġfavor": 4677, "ĠNow": 4678, ";i": 4679, "ĠMain": 4680, "_k": 4681, "eries": 4682, "âĢĻll": 4683, "transform": 4684, "imestamp": 4685, "Pre": 4686, "Ġmer": 4687, ".res": 4688, "stant": 4689, "Location": 4690, "_NAME": 4691, "Ġloss": 4692, "ĠĊĊ": 4693, "net": 4694, "Ġengine": 4695, "Block": 4696, "Ġissues": 4697, "Ġparse": 4698, "ĠBar": 4699, "Ġstay": 4700, "ĠJSON": 4701, "Ġdom": 4702, "airs": 4703, "wner": 4704, "Ġlower": 4705, "\",čĊ": 4706, "ĠDem": 4707, "ufact": 4708, "Ġps": 4709, "Ġperfect": 4710, "RL": 4711, "Ġeduc": 4712, "ls": 4713, "emory": 4714, "ARRANT": 4715, "uge": 4716, "Ġexact": 4717, ".key": 4718, "alled": 4719, "ech": 4720, "ief": 4721, "\\/": 4722, "oke": 4723, "Ġformer": 4724, "alloc": 4725, "Ġsix": 4726, "ida": 4727, "Ġmargin": 4728, "Ġheart": 4729, "ald": 4730, "pack": 4731, ".getElementById": 4732, "ĠWARRANT": 4733, "Ġrather": 4734, "Ġbuilding": 4735, "erman": 4736, "lice": 4737, "Ġquestions": 4738, "izes": 4739, "lege": 4740, "irectory": 4741, "Ġje": 4742, "Ġcas": 4743, "props": 4744, "utf": 4745, "Ġsecurity": 4746, "Ġhowever": 4747, "weight": 4748, "Ġinside": 4749, "Ġpresident": 4750, "Char": 4751, "ĠWITH": 4752, ".map": 4753, "Ġgraph": 4754, "Ġtag": 4755, "_status": 4756, "Ġattempt": 4757, "opp": 4758, "uses": 4759, "ĉconst": 4760, "Ġround": 4761, ",$": 4762, "Ġfriends": 4763, "Email": 4764, "?>": 4765, "Resource": 4766, "KEY": 4767, "osp": 4768, ".query": 4769, "ĠNorth": 4770, "ables": 4771, "istrib": 4772, "_class": 4773, "ello": 4774, "That": 4775, "pecially": 4776, "ĠPresident": 4777, "Ġcampaign": 4778, "Ġalt": 4779, "area": 4780, "Ġchall": 4781, "Ġopport": 4782, ".Con": 4783, "Ġenergy": 4784, "like": 4785, ".string": 4786, "ington": 4787, ")*": 4788, "yy": 4789, "Ġprofession": 4790, "irth": 4791, "Ġseg": 4792, "æľ": 4793, "Ġhor": 4794, "iers": 4795, "can": 4796, "Ġbehind": 4797, "Product": 4798, "fg": 4799, "ĠSk": 4800, ".jpg": 4801, "?:": 4802, "];ĊĊ": 4803, "Ġcallback": 4804, "ĠHttp": 4805, "long": 4806, "MS": 4807, "ATH": 4808, "Ġraise": 4809, "Ġwanted": 4810, "rown": 4811, "utor": 4812, "lt": 4813, "]=": 4814, "eline": 4815, "MA": 4816, "Ġsepar": 4817, "cs": 4818, "semb": 4819, "Dis": 4820, "bserv": 4821, "ĠWill": 4822, "Ġpolicy": 4823, "Ġthird": 4824, "phone": 4825, "Ġbed": 4826, "/g": 4827, ".__": 4828, "ĠInc": 4829, "izing": 4830, ".remove": 4831, "instance": 4832, ".type": 4833, "Ġserv": 4834, "Each": 4835, "Ġhar": 4836, "ĠMessage": 4837, "(key": 4838, "SELECT": 4839, "Pos": 4840, "));čĊ": 4841, "Ġrecomm": 4842, "Ġtraining": 4843, "ĠEnt": 4844, "ĠChar": 4845, "icht": 4846, "(file": 4847, "Ġprior": 4848, "Game": 4849, "Ġexit": 4850, "Params": 4851, ".core": 4852, "PC": 4853, "nes": 4854, "anced": 4855, "(request": 4856, "Password": 4857, "}>Ċ": 4858, "Ġmag": 4859, "Ġrelease": 4860, "Ġshall": 4861, "udent": 4862, "ĠSouth": 4863, "ando": 4864, ":'": 4865, ".TabIndex": 4866, "sk": 4867, "anner": 4868, "isset": 4869, "Ġoutside": 4870, "ledge": 4871, "Ġå": 4872, "ĠRob": 4873, "Ġimm": 4874, "!Ċ": 4875, "ĠWeb": 4876, "Des": 4877, "BC": 4878, "ancial": 4879, "Route": 4880, "Dec": 4881, "ferences": 4882, "Ġpurch": 4883, "ĠModel": 4884, "ctor": 4885, "gn": 4886, "_start": 4887, "_un": 4888, ".*": 4889, "ises": 4890, "Ġground": 4891, "Ġunique": 4892, "Ġbeaut": 4893, "{\"": 4894, "Ġpour": 4895, "ĠOct": 4896, "Ġtree": 4897, "sets": 4898, "_res": 4899, "')->": 4900, "_reg": 4901, "(\"\\": 4902, "Ġbyte": 4903, "Bl": 4904, "Ġdating": 4905, "Ġmatter": 4906, "ĠRem": 4907, "Ġ'../": 4908, "ĠAug": 4909, "ĠLa": 4910, "Ġ$(": 4911, "ournal": 4912, "iam": 4913, "Ġshows": 4914, "write": 4915, "Ġball": 4916, "Ġsimply": 4917, "Ġfast": 4918, "Ġmemory": 4919, "ASS": 4920, "ĠOf": 4921, "oved": 4922, "ante": 4923, "aul": 4924, "istry": 4925, ")));Ċ": 4926, "Ġfit": 4927, "<string": 4928, "Ġpolitical": 4929, "ancel": 4930, "_.": 4931, "card": 4932, ".current": 4933, "och": 4934, "_image": 4935, "\\t": 4936, "#Ċ": 4937, "(L": 4938, "Ġindustry": 4939, "coming": 4940, "Ġextra": 4941, "Ġreported": 4942, ".start": 4943, "Ġresources": 4944, "Ġimg": 4945, "flow": 4946, "_EX": 4947, "(null": 4948, "ĠPre": 4949, "Ġwrong": 4950, "interface": 4951, "Parameter": 4952, "ners": 4953, "á»": 4954, "ture": 4955, "ersist": 4956, "ountry": 4957, "Ġseems": 4958, "alance": 4959, "dest": 4960, "ĉString": 4961, "Ġmaint": 4962, "Ġunit": 4963, "acters": 4964, "ĠTR": 4965, "iful": 4966, "exports": 4967, "project": 4968, "Application": 4969, "legate": 4970, "Ġtakes": 4971, "term": 4972, "Ġetc": 4973, "uster": 4974, "Ġappear": 4975, "address": 4976, "Ġfem": 4977, "hs": 4978, "Ġhom": 4979, ",-": 4980, "Ġdifficult": 4981, "Ġcoming": 4982, "Open": 4983, "Ġsettings": 4984, "ĠWar": 4985, "ĠThen": 4986, "Ġautom": 4987, "ĠFoundation": 4988, "Ġquite": 4989, "Description": 4990, "Ġblog": 4991, "iqu": 4992, "PS": 4993, "_field": 4994, "Json": 4995, "SSION": 4996, "ĠSch": 4997, "ĠLO": 4998, "Ġdescri": 4999, "Ġeveryone": 5000, "Ġpretty": 5001, "Ġlonger": 5002, "Ġmenu": 5003, "Ġcurrently": 5004, "sec": 5005, "Ġrelationship": 5006, "################################": 5007, "ĠMap": 5008, "aset": 5009, "Ġparameters": 5010, "Ġcrush": 5011, "\"čĊ": 5012, "ILITY": 5013, "igration": 5014, "Ġcout": 5015, "total": 5016, "Ġnames": 5017, "ndef": 5018, "\");": 5019, "riend": 5020, "ynamic": 5021, "Ġeffort": 5022, "Ġactual": 5023, "Ġfields": 5024, "OUN": 5025, "ters": 5026, "Ġfix": 5027, "_model": 5028, "Ġcases": 5029, "CA": 5030, "My": 5031, "Interface": 5032, "ĠSE": 5033, "]]": 5034, "alle": 5035, "ĠNational": 5036, "ĠArrayList": 5037, "inline": 5038, ".V": 5039, "ara": 5040, "refix": 5041, "asc": 5042, "Reader": 5043, "astic": 5044, "(()": 5045, "Cl": 5046, ".annotation": 5047, "Ġperformance": 5048, "aily": 5049, ".toString": 5050, ".net": 5051, "views": 5052, ".end": 5053, "ayers": 5054, "late": 5055, "ĠApr": 5056, "ederal": 5057, "'])": 5058, ".body": 5059, "Ġhigher": 5060, "_fl": 5061, "cr": 5062, "alert": 5063, "_node": 5064, "ĠGoogle": 5065, "Ġitself": 5066, "Auth": 5067, "urrency": 5068, "Ġsignificant": 5069, "append": 5070, "Ġrespect": 5071, "strap": 5072, "Ġuna": 5073, "riteria": 5074, "PORT": 5075, ".apache": 5076, "Output": 5077, "Ġprogress": 5078, "Ġmid": 5079, "ĠMicrosoft": 5080, "Ġresource": 5081, "ablish": 5082, "Ġdim": 5083, ".load": 5084, ".App": 5085, "Ġdirection": 5086, "Ġadditional": 5087, "ĠĠĠĠĠĠĠĠĠĠĠĠĠĠĠĠĠĠĠĠĠĠĠĠ": 5088, "Ġnumbers": 5089, "Ġcompanies": 5090, ".Th": 5091, "Ġsound": 5092, "username": 5093, "Ġstatement": 5094, "Ġalert": 5095, "Ġcontract": 5096, "home": 5097, "_length": 5098, ".Component": 5099, "ev": 5100, ".Ex": 5101, "ï¼ļ": 5102, "\";": 5103, "ĠHigh": 5104, "Ġ)ĊĊ": 5105, "ĠPoint": 5106, "oph": 5107, "Ġlines": 5108, "->_": 5109, "\")ĊĊ": 5110, "ox": 5111, "application": 5112, "Ġ]Ċ": 5113, "ĊĊĊĊĊĊ": 5114, "Ġsoon": 5115, "ctions": 5116, "inger": 5117, "Ġjoin": 5118, "ĠPe": 5119, "Ġë": 5120, "Ġlas": 5121, ".E": 5122, "css": 5123, "/or": 5124, "ĠStart": 5125, "ĠTO": 5126, "Ġsubs": 5127, "conn": 5128, "components": 5129, "DEBUG": 5130, "quare": 5131, "Function": 5132, "endar": 5133, ".index": 5134, "Ġfill": 5135, "ÄĻ": 5136, "Ġchoose": 5137, "how": 5138, "ĠAmerica": 5139, "assets": 5140, "------------": 5141, "ĠValue": 5142, "Ġoffice": 5143, "Ġveh": 5144, "Ġtransform": 5145, "ĠArt": 5146, "Ġinde": 5147, "Ġfn": 5148, "Ġimplements": 5149, "ango": 5150, "plete": 5151, "+\"": 5152, "tmp": 5153, "amily": 5154, "Ġhash": 5155, "missions": 5156, "EST": 5157, "gt": 5158, "Provider": 5159, "ĠĠĠĠĠĠĠĠĠĠĠĠĠĠĠĠĠĠĠĠĠĠ": 5160, "Ġflag": 5161, "Ġparticip": 5162, "den": 5163, "ĠReturns": 5164, "Ġnote": 5165, "Ã¼r": 5166, "pm": 5167, "ideos": 5168, "Ġspecified": 5169, "ĠEN": 5170, "ester": 5171, "olid": 5172, "Ġupon": 5173, "(std": 5174, "ĉv": 5175, "Ġ'\\": 5176, "uz": 5177, "Ġvert": 5178, "Ġvict": 5179, "ĉself": 5180, "Ġ\"$": 5181, ".k": 5182, "Ġgroups": 5183, "github": 5184, "lang": 5185, "Ġmut": 5186, "TO": 5187, "Ġve": 5188, "ĠPlease": 5189, ";ĊĊĊ": 5190, "access": 5191, "Ġ{\"": 5192, "rea": 5193, "Ġrisk": 5194, "icker": 5195, "oggle": 5196, "ĉwhile": 5197, "ANG": 5198, ".send": 5199, "Ġwoman": 5200, "Ġgets": 5201, "Ġign": 5202, "ĠId": 5203, "_log": 5204, "ONE": 5205, "Ġevid": 5206, "ĠHar": 5207, "_sub": 5208, "Ġendl": 5209, "Ġincluded": 5210, "());ĊĊ": 5211, "ĠAp": 5212, "igr": 5213, "Ġsem": 5214, "ĠBlack": 5215, "doc": 5216, "_table": 5217, "ĠĠĠĠĠĠĠĠĠĠĠĠĠĠĠĠĠĠĠĠĠĠĠĠĠĠĠĠĠĠĠĠĠĠĠĠĠĠĠĠĠĠĠĠĠĠĠĠĠĠĠĠĠĠĠĠĠĠĠĠĠĠĠĠ": 5218, "-up": 5219, "Ġcause": 5220, "Ġ..": 5221, "Ġvan": 5222, "_dict": 5223, "Ġfocus": 5224, "IND": 5225, "CESS": 5226, ".Log": 5227, "Ġmultiple": 5228, "ido": 5229, "Ġregard": 5230, "-M": 5231, "andler": 5232, "ourse": 5233, "Ġdeg": 5234, ".U": 5235, "Ġaddition": 5236, "Ġvarious": 5237, "Ġreceive": 5238, "ĠHT": 5239, "Obj": 5240, "DF": 5241, "Ġincrease": 5242, "ĠOpen": 5243, "];": 5244, "Ġcommit": 5245, "?Ċ": 5246, "ategories": 5247, "atory": 5248, "ship": 5249, "ĠMich": 5250, "Ġhtml": 5251, "romise": 5252, "Ġleave": 5253, "Ġstrateg": 5254, "aven": 5255, "ĠConsole": 5256, "known": 5257, "-n": 5258, "_LE": 5259, ".component": 5260, "Ġbre": 5261, "Session": 5262, "iance": 5263, "Ġalign": 5264, "typedef": 5265, "_result": 5266, "ĠWHERE": 5267, ".split": 5268, "Ġreading": 5269, "FAULT": 5270, "Ġclo": 5271, "Ġnotice": 5272, "_pr": 5273, "arter": 5274, "Ġlock": 5275, "Ġstandard": 5276, "etic": 5277, "ellow": 5278, "Ġpadding": 5279, "ĠHis": 5280, "Ġstates": 5281, "_cast": 5282, "(P": 5283, "aa": 5284, "Ġinternal": 5285, "ean": 5286, "ĠPRO": 5287, "ĠKey": 5288, "Ġespecially": 5289, "ming": 5290, "Ġcross": 5291, "Ġnational": 5292, "_object": 5293, "filter": 5294, "Ġscript": 5295, ".update": 5296, "_i": 5297, "ĠAssert": 5298, "/core": 5299, "%%%%": 5300, "Ġproblems": 5301, "istor": 5302, "Ġ.=": 5303, "Ġarch": 5304, "Ġwritten": 5305, "Ġmilit": 5306, "MENT": 5307, ".ch": 5308, "cape": 5309, "ĠMus": 5310, "_config": 5311, "ĠAPI": 5312, "foot": 5313, "Ġimages": 5314, "endl": 5315, ".In": 5316, "First": 5317, "Ġplatform": 5318, ".prot": 5319, "Option": 5320, "ste": 5321, "ĠTODO": 5322, "Ġforce": 5323, ".cont": 5324, "ĉecho": 5325, "ĠDav": 5326, "Ptr": 5327, "(B": 5328, "RT": 5329, "ĠBase": 5330, "]['": 5331, "Ġannounc": 5332, "console": 5333, "ĠPy": 5334, "ds": 5335, ".as": 5336, "Ġprevent": 5337, "apan": 5338, "Ġ{'": 5339, "}</": 5340, "ĠService": 5341, "ĠSen": 5342, "ador": 5343, "profile": 5344, "Top": 5345, "Ġiter": 5346, "po": 5347, "IES": 5348, "JSON": 5349, "IE": 5350, "iant": 5351, "ãĢģ": 5352, "_j": 5353, "ĠSept": 5354, "_map": 5355, "bum": 5356, "(context": 5357, "ĠHome": 5358, "ians": 5359, "GB": 5360, "Ġliving": 5361, "Ġpattern": 5362, "(input": 5363, "icient": 5364, "Core": 5365, "Ġentity": 5366, "Ġinteg": 5367, "Changed": 5368, "Ġuseful": 5369, ".info": 5370, "Ġtool": 5371, "(item": 5372, "Ġok": 5373, "Ġfeed": 5374, "IX": 5375, "Ã©s": 5376, "ĠNews": 5377, "remove": 5378, "erry": 5379, "ĉĉĉĉĉĉĉĉĉ": 5380, "ipment": 5381, "ares": 5382, "Do": 5383, "Current": 5384, ".content": 5385, ".Group": 5386, "ustral": 5387, "})": 5388, "Ġpopular": 5389, "Ġstre": 5390, "Ġmethods": 5391, "_ERROR": 5392, "Left": 5393, "cal": 5394, "bsp": 5395, ".ToString": 5396, "Ġdir": 5397, "Ġallowed": 5398, "Ġimpact": 5399, "\")]Ċ": 5400, ".config": 5401, "Ġelements": 5402, "Ġprote": 5403, "Ġtrain": 5404, ".tr": 5405, "rs": 5406, "ĠRepublic": 5407, "ĠTask": 5408, "aries": 5409, "(D": 5410, "(get": 5411, "âĢ¦ĊĊ": 5412, "Ġrelated": 5413, "Ġvers": 5414, "Ġsil": 5415, "Ġ\"\";Ċ": 5416, "Ġcmd": 5417, "Ġtechnology": 5418, ".width": 5419, "Float": 5420, "ĠUse": 5421, "Body": 5422, "should": 5423, ".join": 5424, "Font": 5425, "llum": 5426, "ycle": 5427, "ĠBrit": 5428, "Ġmit": 5429, "Ġscale": 5430, "Ġ(_": 5431, "ernel": 5432, "\"))Ċ": 5433, "Ġscore": 5434, "/v": 5435, "Ġstudent": 5436, "UC": 5437, ".show": 5438, "Ġaverage": 5439, "Enabled": 5440, "(ex": 5441, "common": 5442, "imation": 5443, ":@\"": 5444, "chie": 5445, "Ġ...ĊĊ": 5446, "river": 5447, "ĠMarch": 5448, "category": 5449, "fin": 5450, "Ġcourt": 5451, "Server": 5452, "Ġcontainer": 5453, "-st": 5454, "_for": 5455, "Ġparts": 5456, "Ġdecision": 5457, "obs": 5458, "oub": 5459, "mitted": 5460, "Ġ$('#": 5461, "Ġsaw": 5462, "Ġapproach": 5463, "ICE": 5464, "Ġsaying": 5465, "Ġanyone": 5466, "meta": 5467, "SD": 5468, "Ġsong": 5469, "display": 5470, "Oper": 5471, "outes": 5472, "Ġchannel": 5473, "Ġchanged": 5474, "Ãª": 5475, "Ġfinally": 5476, "_number": 5477, "Please": 5478, "à¤": 5479, "oring": 5480, "-re": 5481, "Ġkill": 5482, "Ġdrug": 5483, "window": 5484, "Ġconvert": 5485, "ombre": 5486, "Ġways": 5487, "Helper": 5488, "ĠFirst": 5489, "(__": 5490, "urity": 5491, "ĠWindows": 5492, "ees": 5493, "Ġmat": 5494, "rapper": 5495, "Ġplus": 5496, "anges": 5497, "\"].": 5498, "azon": 5499, "/t": 5500, "lat": 5501, "aste": 5502, "Ġprofile": 5503, "Ġready": 5504, "#ifndef": 5505, "rote": 5506, "Ġsense": 5507, "Gener": 5508, "ĠConfig": 5509, "omy": 5510, "ĠJune": 5511, "Ġlatest": 5512, "Ġsaf": 5513, "Ġregion": 5514, "Ġdeep": 5515, "witch": 5516, "ĠPark": 5517, "}`": 5518, "ĠFrom": 5519, "II": 5520, "Ġcv": 5521, "Ġreach": 5522, "Ġcounter": 5523, "ĠWork": 5524, "ĠURL": 5525, "ĠUpdate": 5526, "',čĊ": 5527, "Ġimmedi": 5528, "close": 5529, "ados": 5530, "ferred": 5531, "Ġweeks": 5532, "urg": 5533, "Ġdamage": 5534, "Ġlost": 5535, "ani": 5536, "_lo": 5537, "Ġhimself": 5538, "Ġdog": 5539, ")]Ċ": 5540, "ï¿": 5541, "pir": 5542, "tt": 5543, "Ġpaper": 5544, "Ġthems": 5545, "second": 5546, "Ġstaff": 5547, "ĠInput": 5548, "\"+": 5549, "ĠFacebook": 5550, "Ġalloc": 5551, "Ġsched": 5552, "ACE": 5553, "Ġthemselves": 5554, "ĠComponent": 5555, "Ġdriver": 5556, "ja": 5557, "(path": 5558, "Ġcategory": 5559, "alls": 5560, "pu": 5561, "lluminate": 5562, "ĠAction": 5563, ".button": 5564, "ĠGL": 5565, "istics": 5566, "Ġoil": 5567, "Ġstock": 5568, ">'": 5569, "Ġdead": 5570, "VAL": 5571, "QUE": 5572, "************************************************************************": 5573, "Ġcharg": 5574, "Return": 5575, "Ġful": 5576, "dom": 5577, "Ġrules": 5578, "Ġmodify": 5579, "Ġeval": 5580, "ham": 5581, "atement": 5582, "\\<": 5583, "ula": 5584, "=False": 5585, "RA": 5586, "Ġcontains": 5587, "Ġstack": 5588, "mar": 5589, "Ġ{}Ċ": 5590, "Ġundefined": 5591, "Ass": 5592, "ĠChina": 5593, "vey": 5594, "*Ċ": 5595, "Ġplaying": 5596, ")/": 5597, "actor": 5598, "Ġbottom": 5599, "lier": 5600, "ĠNumber": 5601, "Ġcouple": 5602, "DC": 5603, "ĠSO": 5604, "gor": 5605, ".setText": 5606, "success": 5607, "command": 5608, "Filter": 5609, "ĠOur": 5610, "_item": 5611, "Ġctx": 5612, "Ġroad": 5613, "Version": 5614, "case": 5615, "urt": 5616, "avior": 5617, "ych": 5618, "sembly": 5619, "ĠProduct": 5620, "Ġheld": 5621, "afe": 5622, "Ġincludes": 5623, "<quote": 5624, "Ġavoid": 5625, "ĠFin": 5626, "ĠMod": 5627, "Ġtab": 5628, "ano": 5629, "Ã±": 5630, "ipping": 5631, "-e": 5632, "Ġinsert": 5633, "target": 5634, "chan": 5635, ".Model": 5636, "IME": 5637, "\\Ċ": 5638, "Ġmachine": 5639, "avy": 5640, "ĠNO": 5641, "ĠInter": 5642, "Ġoperation": 5643, "modal": 5644, "Tag": 5645, "]:": 5646, "Ġproduction": 5647, "Ġareas": 5648, "Ġren": 5649, "_from": 5650, "nbsp": 5651, "Ġoperator": 5652, "men": 5653, "apped": 5654, "_per": 5655, "zen": 5656, "(\".": 5657, ".save": 5658, "=\"{{": 5659, "Ġtor": 5660, "(response": 5661, "Ġcandid": 5662, "Ġconv": 5663, "ailed": 5664, "ĠLib": 5665, "comp": 5666, "ura": 5667, "ï¿½": 5668, "ĠHere": 5669, "Ġargument": 5670, "hood": 5671, "Ġestablish": 5672, "ography": 5673, "ĠonClick": 5674, "ambda": 5675, "Ġsch": 5676, "Ġmovie": 5677, "Ġsec": 5678, "Ġactivity": 5679, "Ġsql": 5680, "_all": 5681, "incip": 5682, "Ġprovides": 5683, "Ġsys": 5684, "acket": 5685, "Ġwasn": 5686, "Ġuses": 5687, "ĠFunction": 5688, ".google": 5689, "ĠResult": 5690, "Visible": 5691, "agma": 5692, "elcome": 5693, "ĠSy": 5694, "ĠCent": 5695, "ALSE": 5696, "aciÃ³n": 5697, "EXT": 5698, "Ġlicense": 5699, "ĠLong": 5700, "Ġaccom": 5701, "Ġability": 5702, ".height": 5703, "Active": 5704, "ological": 5705, "oly": 5706, ")),": 5707, ".Se": 5708, "Ġparameter": 5709, "prite": 5710, "ABILITY": 5711, ".service": 5712, "ĠGroup": 5713, "_query": 5714, "ĠItem": 5715, "ining": 5716, "Ġjud": 5717, "ims": 5718, "fix": 5719, "inder": 5720, "agram": 5721, "Ġfunctions": 5722, "Ġexperi": 5723, "ĠEm": 5724, "Ġrot": 5725, "Ġpen": 5726, ".btn": 5727, "ĠAS": 5728, "#ifdef": 5729, "Ġchoice": 5730, "ĠPage": 5731, "_PRO": 5732, "QU": 5733, "åı": 5734, "antity": 5735, "ÂŃ": 5736, "words": 5737, "Ġreadonly": 5738, "Ġflex": 5739, "protected": 5740, "ĠAny": 5741, "Ġcharacters": 5742, "enced": 5743, "ĠJuly": 5744, "iler": 5745, "Card": 5746, "urance": 5747, "Ġrev": 5748, ".event": 5749, "aly": 5750, "Ġwonder": 5751, "ĠPort": 5752, "Ġlegal": 5753, "role": 5754, "Ġten": 5755, "Ġgoes": 5756, "MP": 5757, "white": 5758, "):čĊ": 5759, "))čĊ": 5760, "Ġreference": 5761, "Ġmis": 5762, "ĠProject": 5763, "icks": 5764, ">&": 5765, "CON": 5766, "Ġrepl": 5767, "Ġregular": 5768, "Storage": 5769, "ramework": 5770, "Ġgoal": 5771, "Ġtouch": 5772, ".widget": 5773, "Ġbuilt": 5774, "des": 5775, "Part": 5776, "(re": 5777, "Ġworth": 5778, "hib": 5779, "game": 5780, "acion": 5781, "ĠWhite": 5782, "(type": 5783, "(`": 5784, "Ġnatural": 5785, "Ġinj": 5786, "Ġcalcul": 5787, "ĠApril": 5788, ".List": 5789, "Ġassociated": 5790, "ĉSystem": 5791, "~~": 5792, "=[": 5793, "Ġstorage": 5794, "Ġbytes": 5795, "Ġtravel": 5796, "Ġsou": 5797, "Ġpassed": 5798, "!=": 5799, "ascript": 5800, ".open": 5801, "Ġgrid": 5802, "Ġbus": 5803, "Ġrecogn": 5804, "Ab": 5805, "Ġhon": 5806, "ĠCenter": 5807, "Ġprec": 5808, "build": 5809, "HTML": 5810, "ĠSan": 5811, "Ġcountries": 5812, "aled": 5813, "token": 5814, "kt": 5815, "Ġqual": 5816, "Last": 5817, "adow": 5818, "Ġmanufact": 5819, "idad": 5820, "jango": 5821, "Next": 5822, "xf": 5823, ".a": 5824, "Ġporno": 5825, "ĠPM": 5826, "erve": 5827, "iting": 5828, "_th": 5829, "ci": 5830, "=None": 5831, "gs": 5832, "Ġlogin": 5833, "atives": 5834, "']);Ċ": 5835, "Äħ": 5836, "Ġill": 5837, "IA": 5838, "children": 5839, "DO": 5840, "Ġlevels": 5841, "Ġ{{": 5842, "Ġlooks": 5843, "Ġ\"#": 5844, "ToString": 5845, "Ġnecessary": 5846, "ĠĠĠĊ": 5847, "cell": 5848, "Entry": 5849, "Ġ'#": 5850, "Ġextrem": 5851, "Selector": 5852, "Ġplaceholder": 5853, "Load": 5854, "Ġreleased": 5855, "ORE": 5856, "Enumer": 5857, "ĠTV": 5858, "SET": 5859, "inq": 5860, "Press": 5861, "ĠDepartment": 5862, "Ġproperties": 5863, "Ġrespond": 5864, "Search": 5865, "ael": 5866, "Ġrequ": 5867, "ĠBook": 5868, "/Ċ": 5869, "(st": 5870, "Ġfinancial": 5871, "icket": 5872, "_input": 5873, "Ġthreat": 5874, "(in": 5875, "Strip": 5876, "ìĿ": 5877, "Ã§Ã£o": 5878, "Ġevidence": 5879, "));": 5880, "ĠBro": 5881, "Ġ[];Ċ": 5882, "Ġou": 5883, "buf": 5884, "Script": 5885, "dat": 5886, "Ġrule": 5887, "#import": 5888, "=\"/": 5889, "Serial": 5890, "Ġstarting": 5891, "[index": 5892, "ae": 5893, "Ġcontrib": 5894, "session": 5895, "_new": 5896, "utable": 5897, "ober": 5898, "Ġ\"./": 5899, "Ġlogger": 5900, "Ġrecently": 5901, "Ġreturned": 5902, "ččĊ": 5903, ")))Ċ": 5904, "itions": 5905, "Ġseek": 5906, "Ġcommunic": 5907, "Ġ\".": 5908, "Ġusername": 5909, "ECT": 5910, "DS": 5911, "Ġotherwise": 5912, "ĠGerman": 5913, ".aw": 5914, "Adapter": 5915, "ixel": 5916, "Ġsystems": 5917, "Ġdrop": 5918, "Ġstructure": 5919, "Ġ$(\"#": 5920, "encies": 5921, "anning": 5922, "ĠLink": 5923, "ĠResponse": 5924, "Ġstri": 5925, "Å¼": 5926, "ĠDB": 5927, "æĹ": 5928, "android": 5929, "submit": 5930, "otion": 5931, "(@": 5932, ".test": 5933, "ĊĊĊĊĊĊĊĊ": 5934, "];čĊ": 5935, "Ġdirectly": 5936, "Ġ\"%": 5937, "ris": 5938, "elta": 5939, "AIL": 5940, "){čĊ": 5941, "mine": 5942, "ĠĠĠĠĠĠĠĠĠĠĠĠĠĠĠĠĠĠĠĠĠĠĠĠĠĠ": 5943, "(k": 5944, "bon": 5945, "asic": 5946, "pite": 5947, "___": 5948, "Max": 5949, "Ġerrors": 5950, "ĠWhile": 5951, "Ġarguments": 5952, "Ġensure": 5953, "Right": 5954, "-based": 5955, "Web": 5956, "Ġ-=": 5957, "Ġintrodu": 5958, "ĠInst": 5959, "ĠWash": 5960, "ordin": 5961, "join": 5962, "Database": 5963, "Ġgrad": 5964, "Ġusually": 5965, "ITE": 5966, "Props": 5967, "?>Ċ": 5968, "ĠGo": 5969, "@Override": 5970, "REF": 5971, "Ġip": 5972, "ĠAustral": 5973, "Ġist": 5974, "ViewById": 5975, "Ġserious": 5976, "Ġcustomer": 5977, ".prototype": 5978, "odo": 5979, "cor": 5980, "Ġdoor": 5981, "ĠWITHOUT": 5982, "Ġplant": 5983, "Ġbegan": 5984, "Ġdistance": 5985, "()).": 5986, "Ġchance": 5987, "Ġord": 5988, "came": 5989, "pragma": 5990, "Ġprotect": 5991, "ragment": 5992, "ĠNode": 5993, "ening": 5994, "Ġroute": 5995, "ĠSchool": 5996, "hi": 5997, "Ġneighb": 5998, "After": 5999, "licit": 6000, "Ġcontr": 6001, "Ġprimary": 6002, "AA": 6003, ".WriteLine": 6004, "utils": 6005, "Ġbi": 6006, "Red": 6007, ".Linq": 6008, ".object": 6009, "Ġleaders": 6010, "unities": 6011, "Ġgun": 6012, "onth": 6013, "ĠDev": 6014, "FILE": 6015, "Ġcomments": 6016, "_len": 6017, "arrow": 6018, "amount": 6019, "Range": 6020, "sert": 6021, "GridView": 6022, "Ġupdated": 6023, "ĠMo": 6024, "Ġinform": 6025, "ociety": 6026, "ala": 6027, "Access": 6028, "Ġhab": 6029, "Ġcreat": 6030, "_arg": 6031, "ĠJanuary": 6032, "ĠDay": 6033, "\")čĊ": 6034, "uple": 6035, "document": 6036, "gorith": 6037, "menu": 6038, "ĠOver": 6039, "bb": 6040, ".title": 6041, "_out": 6042, "Ġled": 6043, "uri": 6044, "Ġ?></": 6045, "gl": 6046, "Ġbank": 6047, "ayment": 6048, "ĉprintf": 6049, "MD": 6050, "Ġsample": 6051, "Ġhands": 6052, "ĠVersion": 6053, "uario": 6054, "Ġoffers": 6055, "ityEngine": 6056, "Ġshape": 6057, "Ġsleep": 6058, "_point": 6059, "Settings": 6060, "Ġachie": 6061, "Ġsold": 6062, "ota": 6063, ".bind": 6064, "Am": 6065, "Ġsafe": 6066, "Store": 6067, "Ġshared": 6068, "Ġpriv": 6069, "_VAL": 6070, "Ġsens": 6071, "){": 6072, "Ġremember": 6073, "shared": 6074, "element": 6075, "Ġshoot": 6076, "Vert": 6077, "cout": 6078, "Ġenv": 6079, "_label": 6080, "Ġ>Ċ": 6081, "run": 6082, "Ġscene": 6083, "(array": 6084, "device": 6085, "_title": 6086, "agon": 6087, "]čĊ": 6088, "aby": 6089, "Ġbecame": 6090, "boolean": 6091, "Ġpark": 6092, "ĠCode": 6093, "upload": 6094, "riday": 6095, "ĠSeptember": 6096, "Fe": 6097, "Ġsen": 6098, "cing": 6099, "FL": 6100, "Col": 6101, "uts": 6102, "_page": 6103, "inn": 6104, "Ġimplied": 6105, "aling": 6106, "Ġyourself": 6107, ".Count": 6108, "conf": 6109, "Ġaud": 6110, "_init": 6111, ".)": 6112, "Ġwrote": 6113, "NG": 6114, ".Error": 6115, "ä»": 6116, ".for": 6117, "Ġequal": 6118, "ĠRequest": 6119, "Ġserial": 6120, "Ġallows": 6121, "XX": 6122, "Ġmiddle": 6123, "chor": 6124, "Ã¸": 6125, "erval": 6126, ".Column": 6127, "reading": 6128, "Ġescort": 6129, "ĠAugust": 6130, "Ġquickly": 6131, "Ġweap": 6132, "ĠCG": 6133, "ropri": 6134, "ho": 6135, "Ġcop": 6136, "(struct": 6137, "ĠBig": 6138, "Ġvs": 6139, "Ġfrequ": 6140, ".Value": 6141, "Ġactions": 6142, "Ġproper": 6143, "Ġinn": 6144, "Ġobjects": 6145, "Ġmatrix": 6146, "avascript": 6147, "Ġones": 6148, ".group": 6149, "Ġgreen": 6150, "Ġpaint": 6151, "ools": 6152, "ycl": 6153, "encode": 6154, "olt": 6155, "comment": 6156, ".api": 6157, "Dir": 6158, "Ġune": 6159, "izont": 6160, ".position": 6161, "Ġdesigned": 6162, "_val": 6163, "avi": 6164, "iring": 6165, "tab": 6166, "Ġlayer": 6167, "Ġviews": 6168, "Ġreve": 6169, "rael": 6170, "ĠON": 6171, "rics": 6172, "np": 6173, "Ġcore": 6174, "());čĊ": 6175, "Main": 6176, "Ġexpert": 6177, "ĉĉčĊ": 6178, "_en": 6179, "Ġ/>": 6180, "utter": 6181, "IAL": 6182, "ails": 6183, "ĠKing": 6184, "*/ĊĊ": 6185, "ĠMet": 6186, "_end": 6187, "addr": 6188, "ora": 6189, "Ġir": 6190, "Min": 6191, "Ġsurpr": 6192, "Ġrepe": 6193, "Ġdirectory": 6194, "PUT": 6195, "-S": 6196, "Ġelection": 6197, "haps": 6198, ".pre": 6199, "cm": 6200, "Values": 6201, "Ġ\"Ċ": 6202, "column": 6203, "ivil": 6204, "Login": 6205, "inue": 6206, "Ġbeautiful": 6207, "Ġsecret": 6208, "(event": 6209, "Ġchat": 6210, "ums": 6211, "Ġorigin": 6212, "Ġeffects": 6213, "Ġmanagement": 6214, "illa": 6215, "tk": 6216, "Ġsetting": 6217, "ĠCour": 6218, "Ġmassage": 6219, "ĉend": 6220, "Ġhappy": 6221, "Ġfinish": 6222, "Ġcamera": 6223, "ĠVer": 6224, "ĠDemocr": 6225, "ĠHer": 6226, "(Q": 6227, "cons": 6228, "ita": 6229, "Ġ'.": 6230, "{}": 6231, "ĉC": 6232, "Ġstuff": 6233, "Ġ:Ċ": 6234, "ĠAR": 6235, "Task": 6236, "hidden": 6237, "eros": 6238, "IGN": 6239, "atio": 6240, "ĠHealth": 6241, "olute": 6242, "Enter": 6243, "'>": 6244, "ĠTwitter": 6245, "ĠCounty": 6246, "scribe": 6247, "Ġ=>Ċ": 6248, "Ġhy": 6249, "fit": 6250, "Ġmilitary": 6251, "Ġsale": 6252, "required": 6253, "non": 6254, "bootstrap": 6255, "hold": 6256, "rim": 6257, "-old": 6258, "ĠDown": 6259, "Ġmention": 6260, "contact": 6261, "_group": 6262, "oday": 6263, "Ġtown": 6264, "Ġsolution": 6265, "uate": 6266, "elling": 6267, "]->": 6268, "otes": 6269, "ental": 6270, "omen": 6271, "ospital": 6272, "ĠSup": 6273, "_EN": 6274, "Ġslow": 6275, "SESSION": 6276, "Ġblue": 6277, "ago": 6278, "Ġlives": 6279, "Ġ^": 6280, ".un": 6281, "inst": 6282, "enge": 6283, "Ġcustomers": 6284, "Ġcast": 6285, "udget": 6286, "ï¼ģ": 6287, "icens": 6288, "Ġdetermin": 6289, "Selected": 6290, "_pl": 6291, "ueue": 6292, "Ġdark": 6293, "//ĊĊ": 6294, "si": 6295, "thern": 6296, "ĠJapan": 6297, "/w": 6298, "PU": 6299, "ĠEast": 6300, "ovie": 6301, "Ġpackage": 6302, "Ġnor": 6303, "Ġapi": 6304, "bot": 6305, "\"];Ċ": 6306, "_post": 6307, "ulate": 6308, "Ġclub": 6309, "'));Ċ": 6310, "Ġloop": 6311, "PIO": 6312, "ione": 6313, "shot": 6314, "Initial": 6315, "Ġplayed": 6316, "register": 6317, "rought": 6318, "_max": 6319, "acement": 6320, "match": 6321, "raphics": 6322, "AST": 6323, "Ġexisting": 6324, "Ġcomplex": 6325, "DA": 6326, ".Ch": 6327, ".common": 6328, "mo": 6329, "Ġ'../../": 6330, "ito": 6331, "Ġanalysis": 6332, "Ġdeliver": 6333, "ĠĠĠĠĠĠĠĠĠĠĠĠĠĠĠĠĊ": 6334, "idx": 6335, "Ãł": 6336, "ongo": 6337, "ĠEnglish": 6338, "<!--": 6339, "Ġcomputer": 6340, "ENSE": 6341, "Ġpas": 6342, "Ġrais": 6343, "Hash": 6344, "Ġmobile": 6345, "Ġowner": 6346, "FIG": 6347, "ĠĠĠĠĠĠĠĠĠĠĠĠĠĠĠĠĠĠĠĠĠĠĠĠĠĠĠĠĠĠĠĠĠĠĠĠĠĠĠĠĠĠĠĠĠĠĠĠĠĠĠ": 6348, "thes": 6349, "Ġattr": 6350, "wd": 6351, ".time": 6352, "awn": 6353, "Ġtreatment": 6354, "ĠAc": 6355, ".View": 6356, "impl": 6357, "more": 6358, "pass": 6359, "Ġha": 6360, ".from": 6361, "Ġleading": 6362, "FFFF": 6363, "(error": 6364, ".ui": 6365, "atar": 6366, "aders": 6367, "dates": 6368, "Ġzu": 6369, "Ġflow": 6370, "Target": 6371, "Ġinvolved": 6372, "Ġio": 6373, "parse": 6374, "$_": 6375, "hest": 6376, ".int": 6377, "-item": 6378, "asy": 6379, "Sp": 6380, "Ġshift": 6381, "NT": 6382, "Ġtf": 6383, "_TR": 6384, ".web": 6385, "CS": 6386, "Ġ})": 6387, "Ġeyes": 6388, "_z": 6389, "');čĊ": 6390, "iforn": 6391, "Ġ{@": 6392, "Ġnice": 6393, ".list": 6394, "ĠĠĠĠčĊ": 6395, "Ġfloor": 6396, "Ġredirect": 6397, "ĠUK": 6398, "(['": 6399, "Ġwish": 6400, "Ġcapt": 6401, "legal": 6402, "ĠIO": 6403, "Ġstage": 6404, ".String": 6405, "ĠAfr": 6406, "igen": 6407, "ĠSH": 6408, "Delete": 6409, "ells": 6410, "Ġsolid": 6411, "Ġmeeting": 6412, "Ġworked": 6413, "Ġeditor": 6414, "iny": 6415, "_read": 6416, ".Id": 6417, "eff": 6418, "Offset": 6419, "cha": 6420, "USER": 6421, "ĉĉĠĠĠ": 6422, "ipped": 6423, "Ġdict": 6424, "ĠRun": 6425, ".hpp": 6426, "Ġang": 6427, "xml": 6428, "imple": 6429, "Ġmedical": 6430, "_token": 6431, "connect": 6432, "Ġhour": 6433, "Ġcontroller": 6434, "_message": 6435, "UID": 6436, "Gr": 6437, "anded": 6438, "_CH": 6439, "Ġbooks": 6440, "Ġspeak": 6441, "aming": 6442, "Ġmount": 6443, "Record": 6444, "ĉstruct": 6445, ".Web": 6446, "ondon": 6447, "Ġ//Ċ": 6448, "Ġfelt": 6449, ".Auto": 6450, "idge": 6451, "_pos": 6452, "PR": 6453, "Ġmodern": 6454, "Collection": 6455, "_msg": 6456, "CD": 6457, "ĠLo": 6458, "Ġseconds": 6459, "ibly": 6460, ".equals": 6461, "Ġinternational": 6462, "#pragma": 6463, "ooth": 6464, "Writer": 6465, "iate": 6466, "Ġcele": 6467, "ĠBit": 6468, "ivo": 6469, "ivery": 6470, "rd": 6471, "HECK": 6472, "Ġcache": 6473, ".count": 6474, "Ġroll": 6475, ".Read": 6476, "RED": 6477, "Ġsetup": 6478, "izontal": 6479, "models": 6480, "argv": 6481, "Ġconsidered": 6482, "=\"../": 6483, "settings": 6484, "ĠRel": 6485, "Ġgrowth": 6486, "Ġmix": 6487, "ĠWashington": 6488, "Ġplt": 6489, "ĠIM": 6490, "áº": 6491, "Ġturned": 6492, "ĠDateTime": 6493, "ĠWed": 6494, "(url": 6495, "Ġ\"-": 6496, "Ġletter": 6497, "Async": 6498, "ĠĠĠĠĠĠĠĠĠĠĠĠĠĠĠĠĠĠĠĠĠĠĠĠĠĠĠĠ": 6499, "ĠOctober": 6500, "_line": 6501, "Ġattention": 6502, "Ġcollect": 6503, "ĠHash": 6504, "Ġimag": 6505, "Tree": 6506, "Ġsituation": 6507, "ette": 6508, "_no": 6509, "IVE": 6510, "Ġvon": 6511, ".target": 6512, "Ġknowledge": 6513, "Ġdrive": 6514, ".post": 6515, "Ġblood": 6516, "Ġcit": 6517, "primary": 6518, "Ġconfiguration": 6519, "tee": 6520, "Ġphoto": 6521, "isode": 6522, "Trace": 6523, "Ġgave": 6524, "Ġshot": 6525, "ĠAir": 6526, "Ġmother": 6527, "price": 6528, "Ġmorning": 6529, ")){Ċ": 6530, "-x": 6531, "Ġtrade": 6532, "Ġdesc": 6533, "Ġ&&Ċ": 6534, "Ġparents": 6535, "Api": 6536, "åĪ": 6537, "ted": 6538, "wer": 6539, "Ġæ": 6540, "Ġsy": 6541, "ĠKe": 6542, "Parser": 6543, "åħ": 6544, "ancy": 6545, "Ġpiece": 6546, "ifornia": 6547, "toString": 6548, "ran": 6549, "iding": 6550, "PTION": 6551, "comes": 6552, "/lic": 6553, ".client": 6554, "El": 6555, "Long": 6556, "Ġprofessional": 6557, "rupt": 6558, "va": 6559, "Ġcompletely": 6560, "Ġpractice": 6561, "Ġselection": 6562, "Rem": 6563, "ini": 6564, "Ġcam": 6565, "REE": 6566, "Ġsites": 6567, "pa": 6568, "ATUS": 6569, "arrant": 6570, "*(": 6571, "_KEY": 6572, "ĠButton": 6573, "ĠFriday": 6574, "sequ": 6575, "Ġreader": 6576, "Ġmessages": 6577, "è¯": 6578, "Ġbuf": 6579, "Ke": 6580, "Ġnov": 6581, "HP": 6582, "Msg": 6583, "align": 6584, "arily": 6585, "Ġ',": 6586, "_with": 6587, "Ġdas": 6588, "Ġheard": 6589, "atomic": 6590, "rial": 6591, ")[": 6592, "Ġdise": 6593, "@end": 6594, "Ġgold": 6595, "Ġfair": 6596, "Ġsales": 6597, ".Button": 6598, "strict": 6599, "save": 6600, "Ġmeasure": 6601, "Ġ\"+": 6602, "ecause": 6603, "ViewController": 6604, "ĠTable": 6605, ".param": 6606, "Ġdecided": 6607, "(((": 6608, "INFO": 6609, "Ġopportunity": 6610, "Te": 6611, "ICENSE": 6612, "ccording": 6613, "ki": 6614, "ĠUN": 6615, "Ġcontain": 6616, "Ġmanager": 6617, "Ġpain": 6618, "ĠFire": 6619, "rome": 6620, "Ġplans": 6621, "Found": 6622, "lay": 6623, "ĠDecember": 6624, "Ġinflu": 6625, "Ãº": 6626, "rench": 6627, "ĠĠĠĠĠĠĠĠĠĠĠĠĠĠĠĠĠĠĠĠĠĠĠĠĠĠĠĠĠĠĠĠĠ": 6628, "azing": 6629, "brief": 6630, "call": 6631, "wood": 6632, "Ġloaded": 6633, "Ġgrand": 6634, "/f": 6635, "imp": 6636, "_U": 6637, "STR": 6638, "âĢ¢": 6639, "Ġcredit": 6640, ".Color": 6641, "orge": 6642, "QUEST": 6643, "Ġdifference": 6644, "ĠPC": 6645, "wargs": 6646, "Ġpub": 6647, "unday": 6648, "Ġfra": 6649, ".max": 6650, "Ġtried": 6651, "annels": 6652, "send": 6653, "Ġreports": 6654, "Ġadult": 6655, "äº": 6656, "Ġconsist": 6657, "ĠStreet": 6658, "ĠProgram": 6659, "SQL": 6660, "Matrix": 6661, "ouncil": 6662, "-A": 6663, "ĉw": 6664, "Ġwhose": 6665, "Ġrelig": 6666, "ĠSex": 6667, "Ġgives": 6668, "none": 6669, ".message": 6670, "(G": 6671, ".awt": 6672, "-right": 6673, "ĠNovember": 6674, "ellig": 6675, "utive": 6676, "Äĥ": 6677, "overn": 6678, "Ġeasily": 6679, "Ġideas": 6680, "/css": 6681, "lying": 6682, "elle": 6683, "Can": 6684, "_color": 6685, "Ġpair": 6686, "ngth": 6687, "Ġsplit": 6688, "drop": 6689, "arty": 6690, "ona": 6691, "Ġcapital": 6692, "Ġhear": 6693, "Ġexists": 6694, "ĉlog": 6695, "emo": 6696, "Run": 6697, "oi": 6698, "Ġparser": 6699, "ĠMethod": 6700, "Ġeducation": 6701, "[k": 6702, "Ġlibrary": 6703, ">\";Ċ": 6704, "_UN": 6705, "ĉstd": 6706, "oded": 6707, "Ġcalls": 6708, "here": 6709, "Rel": 6710, "Ġbrand": 6711, "background": 6712, "ga": 6713, "_address": 6714, "_params": 6715, "Category": 6716, "ĠIndia": 6717, "_event": 6718, "Ġing": 6719, "Render": 6720, ".cl": 6721, "umpy": 6722, "Ġpet": 6723, "FC": 6724, "ĠAnt": 6725, "Ext": 6726, "Ġcharge": 6727, "ened": 6728, "grad": 6729, "EO": 6730, "Ġdepend": 6731, "Ġ.ĊĊ": 6732, "frame": 6733, "Ġdf": 6734, "Ġhuge": 6735, "ĠPART": 6736, "eds": 6737, ";;": 6738, "ĠAM": 6739, "Ġbasic": 6740, "ĠLet": 6741, "lich": 6742, "Ġarm": 6743, "Ġstar": 6744, "Ġfederal": 6745, "Work": 6746, "Ġcarry": 6747, "ĠIsrael": 6748, "(obj": 6749, "={{": 6750, "Ġsaved": 6751, "Ġsyn": 6752, "Ġconstant": 6753, "VENT": 6754, "Ġpositive": 6755, "Ġconduct": 6756, "Ġskin": 6757, "Ġearlier": 6758, "Ġlayout": 6759, "ĠIP": 6760, "OUR": 6761, "Ġtim": 6762, "stylesheet": 6763, "_cl": 6764, "ĠCard": 6765, "++){Ċ": 6766, "Ġtemper": 6767, "ĠDavid": 6768, "ĉtry": 6769, ".dart": 6770, "Ġwants": 6771, "Ġpicture": 6772, "Ġvideos": 6773, "ĠComm": 6774, "isions": 6775, "_MAX": 6776, "Mapping": 6777, "-content": 6778, "ĠEar": 6779, "-de": 6780, "Ġprem": 6781, "bruary": 6782, "Ġcomponents": 6783, "Ġthroughout": 6784, "Ġpull": 6785, "Ġpages": 6786, "ente": 6787, "respond": 6788, "Ġgas": 6789, "criptor": 6790, "Ġedge": 6791, "Ġbound": 6792, "ACT": 6793, "******": 6794, "Ġcreating": 6795, "ĠCH": 6796, "Ġnullptr": 6797, "Br": 6798, "+'": 6799, ".co": 6800, ">::": 6801, "Ġlearning": 6802, ".Length": 6803, "_SH": 6804, "Ġpatients": 6805, "AIN": 6806, "Ġkids": 6807, "Ġcomfort": 6808, "Ġshown": 6809, "ugins": 6810, "ĠBack": 6811, "ella": 6812, "_CL": 6813, "Ġlat": 6814, "Ġdispatch": 6815, "Ġclasses": 6816, ".at": 6817, ".begin": 6818, "Ġsuccessful": 6819, "ban": 6820, "Ġobtain": 6821, "ĠSl": 6822, "Ġlack": 6823, "iterator": 6824, "Thread": 6825, "(size": 6826, "Ġnone": 6827, ".has": 6828, "_X": 6829, "sort": 6830, "nap": 6831, "pet": 6832, "bin": 6833, "ĠCanada": 6834, "They": 6835, "Ġdans": 6836, "ĠMat": 6837, "<td": 6838, "Ġhair": 6839, "Ġ'',Ċ": 6840, "Ġcu": 6841, "Ġlaws": 6842, "leted": 6843, "ped": 6844, "Ġpow": 6845, "Ġknew": 6846, "_COM": 6847, "_,": 6848, "ĠMag": 6849, "idents": 6850, "(req": 6851, "Ġ),": 6852, "-center": 6853, "Ġwide": 6854, "ĠAuthor": 6855, "stants": 6856, "Ġjobs": 6857, "Ġmath": 6858, "etimes": 6859, "Boolean": 6860, "Ġscope": 6861, "_is": 6862, "Ġmeas": 6863, "Ġkeys": 6864, "elay": 6865, "Ġexactly": 6866, "'=>'": 6867, "ĠPaul": 6868, "mas": 6869, "ĉprint": 6870, "(len": 6871, "fd": 6872, "Ġ);": 6873, ".Event": 6874, "qli": 6875, "irit": 6876, "ields": 6877, "oman": 6878, "ĠTop": 6879, "Ġvote": 6880, "Ġmask": 6881, "Ġtheme": 6882, "-Ċ": 6883, "Ġprops": 6884, "Ġfine": 6885, "Ġwriter": 6886, "_offset": 6887, "car": 6888, "Ġaltern": 6889, "Ġcopyright": 6890, "Ġdestroy": 6891, "pper": 6892, "Ġgenerate": 6893, "pped": 6894, "âĢĻd": 6895, "ĠĠĠĠĠĠĊ": 6896, "make": 6897, "ĠShow": 6898, "Ġbrowser": 6899, "Ġfavorite": 6900, "Ġcareer": 6901, "Ġhappened": 6902, "(char": 6903, "Ġrecommend": 6904, "Ġliter": 6905, ".filter": 6906, "grade": 6907, "ĠÂ£": 6908, "Phone": 6909, "oms": 6910, "Ġnamed": 6911, "-label": 6912, "ipo": 6913, "ĠOther": 6914, "Ġpanel": 6915, "Ġrock": 6916, "Scale": 6917, "ĉassert": 6918, "Ġtrust": 6919, "front": 6920, "Ġdemon": 6921, "Ar": 6922, "Net": 6923, "Ġeconomic": 6924, "footer": 6925, "Ġrace": 6926, "(node": 6927, "ĠOption": 6928, "split": 6929, "Ġphysical": 6930, "ifest": 6931, "Ġremoved": 6932, ".http": 6933, ")),Ċ": 6934, "Ġlooked": 6935, "';": 6936, "ding": 6937, "gest": 6938, "aturday": 6939, "/licenses": 6940, "Price": 6941, "Ġdro": 6942, "Ġtowards": 6943, "Ġuns": 6944, "ĠCL": 6945, "ĉstatic": 6946, "Ġrows": 6947, "Ġdefine": 6948, ".replace": 6949, "Ġfather": 6950, "ĠDesign": 6951, "assign": 6952, "mut": 6953, "Device": 6954, "Did": 6955, "'))Ċ": 6956, "ometry": 6957, "ayload": 6958, "Ġhistor": 6959, "ĠParam": 6960, "ĠBoolean": 6961, "Ġnature": 6962, "Ġjs": 6963, "Ġnation": 6964, "ih": 6965, "Ġdiscover": 6966, "sem": 6967, "Handle": 6968, "ĉr": 6969, "ĠTechn": 6970, "Ġwall": 6971, "{$": 6972, "@property": 6973, "Ġ\"../": 6974, "Ġexam": 6975, ".draw": 6976, "opping": 6977, "Ġnearly": 6978, "Ġcool": 6979, "Ġindepend": 6980, "RES": 6981, "Ġhandler": 6982, "ĠMonday": 6983, "Ġsun": 6984, "Styles": 6985, "ously": 6986, "Ġĉ": 6987, "vest": 6988, "Display": 6989, "(y": 6990, "atically": 6991, "Ġpredict": 6992, "ying": 6993, "Ġsometimes": 6994, "\"]Ċ": 6995, "Ġdrink": 6996, "Ġbul": 6997, "ifications": 6998, ".insert": 6999, ".reg": 7000, "Ġtests": 7001, "Alignment": 7002, "Ġalleg": 7003, "Ġattribute": 7004, "ĠNote": 7005, "Ġmyself": 7006, "arts": 7007, "Now": 7008, "Ġinteresting": 7009, "lients": 7010, "Ġpopulation": 7011, "ĠCalifornia": 7012, "\"I": 7013, "å¹": 7014, "Ġgreater": 7015, "uesday": 7016, "Ġthous": 7017, "Ġcosts": 7018, "Ġlaunch": 7019, "\\Http": 7020, "ker": 7021, "band": 7022, "ĠPlay": 7023, "Ġband": 7024, ".shape": 7025, "esome": 7026, "article": 7027, ".rf": 7028, "Ġwer": 7029, "Ã¡s": 7030, "embers": 7031, "usr": 7032, "BA": 7033, "ican": 7034, "ett": 7035, "validate": 7036, "ulti": 7037, "Ġimmediately": 7038, "zer": 7039, "Ġfigure": 7040, "oes": 7041, "eller": 7042, "ircle": 7043, "ĠSign": 7044, ".db": 7045, "Ġrank": 7046, "Bytes": 7047, "Ġprojects": 7048, "_rec": 7049, "ULAR": 7050, "API": 7051, "ĠLine": 7052, "Port": 7053, "Ġpoll": 7054, "Ġgiving": 7055, "idence": 7056, "--Ċ": 7057, "Ġplot": 7058, "icial": 7059, "Ġwarrant": 7060, "ITION": 7061, "ĠDouble": 7062, "Ġbillion": 7063, "gorithm": 7064, "Ġequipment": 7065, "DATE": 7066, "Ġ@\"": 7067, "EE": 7068, "Ġple": 7069, "iation": 7070, "Ġheaders": 7071, "Ġproced": 7072, ".ComponentModel": 7073, "ĠObama": 7074, "Ġpa": 7075, "ĠBest": 7076, "imately": 7077, ".getString": 7078, ".\\": 7079, "mploy": 7080, "Ġraw": 7081, "_block": 7082, "undred": 7083, "\"},Ċ": 7084, ".GroupLayout": 7085, "Ġbrought": 7086, "NSString": 7087, "throw": 7088, "created": 7089, ".New": 7090, "_view": 7091, "CP": 7092, "eps": 7093, "Op": 7094, "Ġgratis": 7095, "Ġ'\"": 7096, "Ġinterview": 7097, "\"\"\"Ċ": 7098, "Ġpartial": 7099, "Ġaria": 7100, "bing": 7101, "Author": 7102, "Book": 7103, "ĠPat": 7104, "uman": 7105, "Users": 7106, "plus": 7107, "ĠDirect": 7108, "venue": 7109, "alpha": 7110, "UCCESS": 7111, "ĠCall": 7112, "Ġ);čĊ": 7113, "imated": 7114, "Ġremain": 7115, "Ġanti": 7116, "ĠLondon": 7117, "Ġsafety": 7118, "POSE": 7119, "oles": 7120, "controller": 7121, "Byte": 7122, "ĠCourt": 7123, "ĠPhil": 7124, "ĠAssoci": 7125, "ena": 7126, "åĲ": 7127, "_STR": 7128, "coin": 7129, "reshold": 7130, "Ġbatch": 7131, "_Click": 7132, "entication": 7133, ">';Ċ": 7134, "enty": 7135, "Ġbeginning": 7136, "Ġzero": 7137, "ĠConvert": 7138, "Ġterr": 7139, "Ġpaid": 7140, "Ġincreased": 7141, "catch": 7142, "-size": 7143, "activity": 7144, "equals": 7145, "Ġqueue": 7146, "Ġ\"'": 7147, "ĠInternational": 7148, "ĠfÃ¼r": 7149, "ursday": 7150, "Ġscient": 7151, "allow": 7152, "axis": 7153, "Ġappropri": 7154, "edge": 7155, "Ġidx": 7156, "Success": 7157, "entifier": 7158, ":\\": 7159, "xis": 7160, "Ġmaximum": 7161, "arks": 7162, "Ġbirth": 7163, "(index": 7164, "Ġmaybe": 7165, ".py": 7166, "files": 7167, "Ġlimited": 7168, "_check": 7169, "look": 7170, "plies": 7171, "Ġmovement": 7172, "'].": 7173, "Ġbroad": 7174, "ĠBE": 7175, "ĠUnityEngine": 7176, ".cpp": 7177, "ĠEvery": 7178, "Admin": 7179, "Ġfans": 7180, "pared": 7181, "ĊĠĠĠĠĊ": 7182, "Ġforeign": 7183, "Ġpan": 7184, "Ġtour": 7185, "ĠOrder": 7186, "Ġmoving": 7187, "Ġauf": 7188, "Call": 7189, "cb": 7190, "ÅŁ": 7191, "ventory": 7192, "ĠSql": 7193, "Ġfully": 7194, "ClickListener": 7195, "WORD": 7196, "Ġannounced": 7197, ")čĊčĊ": 7198, "Ġagreed": 7199, "rie": 7200, "Ġearn": 7201, "_link": 7202, ".array": 7203, "(text": 7204, "Ġmaterials": 7205, ",p": 7206, "ffff": 7207, "vg": 7208, "ĠÂ©": 7209, "Ġunless": 7210, "ajax": 7211, "LOG": 7212, "Ġsexual": 7213, "Ġ\\\"": 7214, "-time": 7215, "Ġcoach": 7216, "Ġsupported": 7217, "Ġphotos": 7218, "iform": 7219, ".Create": 7220, ")]": 7221, "rier": 7222, "Ġdialog": 7223, "aver": 7224, "ige": 7225, ")+": 7226, "_idx": 7227, ":[": 7228, "_min": 7229, "ĠCong": 7230, "Ġpressure": 7231, "Ġteams": 7232, "Sign": 7233, "begin": 7234, "rian": 7235, "NESS": 7236, "LS": 7237, "Ġimprove": 7238, "ĠSunday": 7239, "Ġdefinition": 7240, "iger": 7241, "rollers": 7242, "Ġthinking": 7243, "Template": 7244, "-F": 7245, "Ġemerg": 7246, "plates": 7247, "ĠUSA": 7248, ".setState": 7249, "ĠAlso": 7250, "rev": 7251, "Ġenable": 7252, "ĠCO": 7253, "PECT": 7254, "Ġconcept": 7255, ")-": 7256, "ĠâĢ¢": 7257, "Ġsets": 7258, "Ġmeaning": 7259, "emon": 7260, "ĠCons": 7261, "cmp": 7262, "eder": 7263, "anned": 7264, "icensed": 7265, "ĠSuper": 7266, "Ġdaily": 7267, "Ġmulti": 7268, "_u": 7269, "Ġchalleng": 7270, "_mode": 7271, "ĠPromise": 7272, "Ġstrict": 7273, "jo": 7274, "inton": 7275, "(list": 7276, "Only": 7277, ">{": 7278, "Ġvehicle": 7279, "íķ": 7280, "ĠPlayer": 7281, "ĠDel": 7282, "Ġpool": 7283, ".url": 7284, "nesday": 7285, "();čĊčĊ": 7286, "Ġ\");Ċ": 7287, "Local": 7288, ".\");Ċ": 7289, "Ġorganization": 7290, "render": 7291, "ĠApplication": 7292, "Ġsummer": 7293, "expected": 7294, "NA": 7295, "Ġrap": 7296, "_obj": 7297, "Ġsurface": 7298, "ĠPUR": 7299, "Ġ},ĊĊ": 7300, "Ġvariables": 7301, "(message": 7302, "Ġopin": 7303, ".back": 7304, "Ġworkers": 7305, "vm": 7306, "Co": 7307, "ughter": 7308, "Ġmaster": 7309, "Ġ\"\",": 7310, "Ġstories": 7311, ".User": 7312, "Ġcelebr": 7313, "inese": 7314, "BS": 7315, "ĠCommand": 7316, "ashboard": 7317, "Ġog": 7318, "kg": 7319, ".image": 7320, ".style": 7321, "Ġsteps": 7322, "ĠBen": 7323, "(args": 7324, "ĠPerson": 7325, ",y": 7326, "Ġofficials": 7327, "|Ċ": 7328, "Ġskills": 7329, "vc": 7330, "Ġbuilder": 7331, "Ġgar": 7332, "Account": 7333, "ĠAuth": 7334, "çĶ": 7335, "'])Ċ": 7336, "ĠAT": 7337, "nn": 7338, ".Int": 7339, "SSERT": 7340, "Ġeffective": 7341, "LETE": 7342, "Ġtools": 7343, "ARD": 7344, "Ġdigital": 7345, "Double": 7346, "ĠFind": 7347, "RC": 7348, "Ġinline": 7349, "/r": 7350, "ARAM": 7351, "ASK": 7352, "Ġintent": 7353, "aight": 7354, "_addr": 7355, "Ġrequests": 7356, ".first": 7357, "Ġdebug": 7358, "Ġspent": 7359, "()));Ċ": 7360, "ÅĽ": 7361, "Ġprincip": 7362, "Logger": 7363, "cludes": 7364, ".use": 7365, "Ġsurv": 7366, "media": 7367, "ĠFebruary": 7368, "ĠMac": 7369, "Ġmissing": 7370, "Ġwife": 7371, "Ġtalking": 7372, "ĠMake": 7373, "Ġcart": 7374, "Ġlocated": 7375, "Enc": 7376, "-a": 7377, "chron": 7378, "Ġcards": 7379, "Ġguy": 7380, "Ġpers": 7381, "ĠYes": 7382, "atever": 7383, "ĠAng": 7384, "olar": 7385, "ĠEven": 7386, "Ġaccur": 7387, "ĠPower": 7388, "ĠGold": 7389, "clear": 7390, "Process": 7391, "Ġrecords": 7392, "Ġkilled": 7393, ".clear": 7394, "ĠWARRANTIES": 7395, "Ġpurpose": 7396, "panel": 7397, "JECT": 7398, "ÃŃa": 7399, "Ġexerc": 7400, "WS": 7401, "/L": 7402, ".exports": 7403, "Ġ___": 7404, "Ġsin": 7405, "Servlet": 7406, "ĠdÃ©": 7407, ".delete": 7408, "roke": 7409, "Sl": 7410, "ugh": 7411, "ears": 7412, "Ġpointer": 7413, "Ġhop": 7414, "allery": 7415, "Ġobs": 7416, "covery": 7417, "ĉchar": 7418, "ĉĉĉĉĉĉĉĉĉĉ": 7419, "ĉdef": 7420, "ocity": 7421, "itchen": 7422, "ulations": 7423, "ĠFIT": 7424, "Ġ).": 7425, "straints": 7426, "vention": 7427, "Ġrequires": 7428, "ĠOper": 7429, "ME": 7430, "OUNT": 7431, "allet": 7432, "Ġnorm": 7433, "IRE": 7434, "exas": 7435, "Ġprograms": 7436, "Ġweak": 7437, "'.$": 7438, "uing": 7439, "ĉĠĠĠĠĠĠĠ": 7440, "Ġmil": 7441, "Ġfirm": 7442, "initely": 7443, "_VALUE": 7444, "apse": 7445, "atisf": 7446, "Ġdemand": 7447, "_mod": 7448, "Ġdescribed": 7449, "Ġplaces": 7450, "VID": 7451, "Ġalone": 7452, "Ġexport": 7453, "Ġvec": 7454, "ĠMax": 7455, "Ġactivities": 7456, "ictures": 7457, "gener": 7458, "Ġma": 7459, "Ĥ¬": 7460, "Ġexpression": 7461, "Callback": 7462, "_content": 7463, "ĠMost": 7464, "Ġtesting": 7465, "EC": 7466, "CHANT": 7467, "Ġadjust": 7468, ".Threading": 7469, "(ctx": 7470, "Ġagree": 7471, "ighest": 7472, "Ġui": 7473, "ĠLaw": 7474, ".Y": 7475, "><?": 7476, "Ġpod": 7477, "-lg": 7478, "âĢĿĊĊ": 7479, "Ġdescribe": 7480, "ĠEuropean": 7481, "-sh": 7482, "ĠPURPOSE": 7483, "ORY": 7484, "Ġconvers": 7485, "ĠIlluminate": 7486, "ĠAv": 7487, "(ch": 7488, "?\"": 7489, "chen": 7490, "ima": 7491, "Document": 7492, "Ġoperations": 7493, "win": 7494, "ĉfunction": 7495, ".Image": 7496, "Ġscen": 7497, "/h": 7498, "ĠSC": 7499, "Ġexplo": 7500, ":%": 7501, "/**čĊ": 7502, "NAME": 7503, "æĪ": 7504, "(var": 7505, "Ġdirector": 7506, "ONG": 7507, "Ġyield": 7508, "Ġfeet": 7509, "ĠSearch": 7510, "ĠIl": 7511, "Ġrestaur": 7512, "duc": 7513, "Ġinteger": 7514, "Ġ'';Ċ": 7515, "Ġhighly": 7516, "checked": 7517, "ĠPARTIC": 7518, "ERCHANT": 7519, "ï¼ī": 7520, "Ġoptim": 7521, "Queue": 7522, "ĠLI": 7523, "itation": 7524, "Ġtransport": 7525, "ission": 7526, "fill": 7527, "usion": 7528, "ĠĠĠĠĠĠĠĠĠĠĠĠĠĠĠĠĠĠĠĠĠĠĠĠĠĠĠĠĠĠ": 7529, "ĉbool": 7530, "-th": 7531, "upt": 7532, "Ġessential": 7533, "anted": 7534, "Ġbenefits": 7535, "ĉS": 7536, "';čĊ": 7537, "iki": 7538, "Ġgirls": 7539, "iced": 7540, "buffer": 7541, "]+": 7542, "Ġsocket": 7543, "Ġprices": 7544, "ĠFre": 7545, "Ġsat": 7546, "Ġwood": 7547, "MenuItem": 7548, "ARG": 7549, "ĠAdmin": 7550, "OWN": 7551, "dk": 7552, "Ġreset": 7553, "Ġforms": 7554, "æĸ": 7555, "ĠTuesday": 7556, "ĠInitialized": 7557, "_train": 7558, "orary": 7559, "ategor": 7560, "Ġdt": 7561, "Total": 7562, "construct": 7563, "ilies": 7564, "Ġguys": 7565, "Ġinstruction": 7566, "yled": 7567, "Ġinternet": 7568, "etadata": 7569, "ady": 7570, "faces": 7571, "jection": 7572, "ĠJack": 7573, "Ġrect": 7574, "[-": 7575, "ĠLeg": 7576, "Ġdevices": 7577, "OC": 7578, "Ġ*čĊ": 7579, "oration": 7580, "ertain": 7581, "Ġguard": 7582, "ostream": 7583, "Ġenum": 7584, ".layout": 7585, "Ġ\";Ċ": 7586, "voke": 7587, "ĠOk": 7588, "Home": 7589, "(tr": 7590, "ETH": 7591, "Ġdelay": 7592, "Ġpurchase": 7593, "dc": 7594, "Ġaren": 7595, "_once": 7596, "ĉĉĉĉĊ": 7597, "ror": 7598, "draw": 7599, ".run": 7600, "(model": 7601, "Timeout": 7602, "lik": 7603, "ĠArg": 7604, ".en": 7605, "Ġfish": 7606, "cpy": 7607, "_fe": 7608, "ERCHANTABILITY": 7609, "(X": 7610, "_output": 7611, "??": 7612, "Ġjo": 7613, "andard": 7614, "Ġdoll": 7615, "errors": 7616, "_base": 7617, "ĠPARTICULAR": 7618, "Ġleader": 7619, "Ġcompar": 7620, "Ġdoub": 7621, "ĠVis": 7622, "StackTrace": 7623, "-C": 7624, "ĠStud": 7625, "stitute": 7626, "More": 7627, "ĠDescription": 7628, "WARE": 7629, "ads": 7630, "bind": 7631, "=self": 7632, "employ": 7633, "[n": 7634, ".all": 7635, "-B": 7636, "&&": 7637, "alm": 7638, "Ġculture": 7639, "house": 7640, "Ġsuffer": 7641, "Ġ'%": 7642, "Ġstraight": 7643, "ĠStar": 7644, "udo": 7645, "Ġded": 7646, "ĠCOM": 7647, "Ġconfirm": 7648, "ĠGood": 7649, ".sc": 7650, "________________": 7651, "DR": 7652, "Configuration": 7653, "DateTime": 7654, "Ġadvert": 7655, "Ġcouldn": 7656, "async": 7657, "stack": 7658, "')čĊ": 7659, "Kit": 7660, "Ġhous": 7661, "Ġmechan": 7662, "rate": 7663, "Ġaudio": 7664, "ĉcout": 7665, "cores": 7666, "Ġspot": 7667, "Ġincreasing": 7668, "Ġ##": 7669, ")))": 7670, "points": 7671, "Ġcompared": 7672, "lig": 7673, "Ġbehavior": 7674, "ĠBY": 7675, "ĠAtt": 7676, "craft": 7677, "headers": 7678, "ete": 7679, "endregion": 7680, "Ġdetail": 7681, "ULE": 7682, "ĠCommon": 7683, "ĉprotected": 7684, "ston": 7685, "ĠFITNESS": 7686, "Ġfresh": 7687, "\">ĊĊ": 7688, ".example": 7689, "berg": 7690, "Ġmoved": 7691, "ĉe": 7692, "ĠSaturday": 7693, "Ġpayload": 7694, "Äĩ": 7695, "):ĊĊ": 7696, "Ġbey": 7697, "urer": 7698, "<script": 7699, "Ġsymbol": 7700, "Ġassum": 7701, "Ġpul": 7702, "Effect": 7703, "Ġhundred": 7704, "Tool": 7705, "aked": 7706, "connection": 7707, "Ġvoice": 7708, "Ġpd": 7709, "Ġtransaction": 7710, "Ġlinks": 7711, "Err": 7712, "ĠIndian": 7713, "TC": 7714, "atalog": 7715, "ni": 7716, "sign": 7717, "<<\"": 7718, "ji": 7719, "ya": 7720, "Ġdemonstr": 7721, "ulated": 7722, ".St": 7723, "Ġinstit": 7724, "Ġboost": 7725, "Ġcells": 7726, "olic": 7727, ".Pro": 7728, ":</": 7729, "EventListener": 7730, "ifying": 7731, "ĠDi": 7732, "orrow": 7733, ".execute": 7734, "Ġcollege": 7735, "Your": 7736, "Ġlargest": 7737, ".dis": 7738, "Ġqui": 7739, "Ġindividuals": 7740, "_buffer": 7741, "Ġng": 7742, "SA": 7743, "ĠControl": 7744, "Ġsing": 7745, "Ġsuit": 7746, "ĠĠĠĠĉ": 7747, "SG": 7748, "Ġjump": 7749, "Ġsmart": 7750, "oma": 7751, "ĠExp": 7752, "Ġ'-": 7753, "Ġassist": 7754, "Ġsuccessfully": 7755, "sys": 7756, "ĠCre": 7757, "_ref": 7758, "ĠThursday": 7759, "Ġbur": 7760, "Ġbeyond": 7761, "Ġnodes": 7762, "Details": 7763, "inct": 7764, "ĠJames": 7765, "Ġaffect": 7766, "exception": 7767, "Ġtypeof": 7768, "(čĊ": 7769, "-se": 7770, "Ġfetch": 7771, "`,": 7772, "Ġcrusher": 7773, "}.": 7774, "ĠBO": 7775, "Show": 7776, "Ġrates": 7777, "Ġbon": 7778, "-icon": 7779, "ĠMedia": 7780, "RESS": 7781, "ĠValid": 7782, "Ġfuck": 7783, "acks": 7784, "Ġstudies": 7785, "Me": 7786, "Ġowners": 7787, "}else": 7788, "Ġgrowing": 7789, "Variable": 7790, "ĠBel": 7791, ".random": 7792, "vement": 7793, "onym": 7794, "(F": 7795, "ĠFALSE": 7796, "Ġtorch": 7797, "(row": 7798, "igo": 7799, "structure": 7800, "Ġcertainly": 7801, "Dep": 7802, "ĠGreen": 7803, "question": 7804, "Ġadding": 7805, "ĠDevelop": 7806, "_def": 7807, "Ġmach": 7808, "=%": 7809, "ĉĉĠ": 7810, "conds": 7811, "Project": 7812, "Ġreject": 7813, "ĠÎ": 7814, "Ġpoor": 7815, "Ġaware": 7816, "ĠBuild": 7817, "ĠBritish": 7818, "ĠNE": 7819, "Ġnumer": 7820, "rees": 7821, "claim": 7822, "Ġmock": 7823, "Ġom": 7824, "Ġscre": 7825, "OLD": 7826, ".pl": 7827, "eler": 7828, "Ġcorrespond": 7829, "_HE": 7830, "Ġbinary": 7831, "_order": 7832, "ĠSQL": 7833, "Ġadvant": 7834, "Ġprev": 7835, ".[": 7836, ".assertEqual": 7837, "plier": 7838, "arp": 7839, "Ġclosed": 7840, "Ġencour": 7841, "ĠQString": 7842, "aud": 7843, "Ġdeveloped": 7844, "Ġpermission": 7845, ".debug": 7846, "operator": 7847, "Ġ'Ċ": 7848, "Ġsym": 7849, "atively": 7850, "Ã©e": 7851, "-color": 7852, "ĠGET": 7853, "ky": 7854, "Ġalthough": 7855, "_request": 7856, "_element": 7857, "................": 7858, "_DATA": 7859, "Ġamazing": 7860, "Ġsb": 7861, "ĠDefault": 7862, "Events": 7863, "Ġfailure": 7864, "acle": 7865, "Properties": 7866, "Ġdream": 7867, "Ġdistr": 7868, "Ġau": 7869, "Ġgenerated": 7870, "æķ": 7871, "ĠTeam": 7872, "USE": 7873, "Ġincome": 7874, "Ġeye": 7875, "_not": 7876, "\"],": 7877, "_form": 7878, "Support": 7879, "orders": 7880, ".Print": 7881, "ville": 7882, "ĠWednesday": 7883, "olver": 7884, "Ġoppos": 7885, "isation": 7886, "ola": 7887, "Close": 7888, "<p": 7889, "_width": 7890, "Invalid": 7891, "xb": 7892, "Ġstrugg": 7893, "_action": 7894, "Ġtxt": 7895, "ĠPath": 7896, "alar": 7897, "ĠMERCHANTABILITY": 7898, "service": 7899, "ĠMichael": 7900, "ableView": 7901, "Debug": 7902, "okes": 7903, "She": 7904, "Ġguess": 7905, "ĠJava": 7906, "_PATH": 7907, "Ġparticularly": 7908, "ĠII": 7909, "Ġdomain": 7910, "å¹´": 7911, "Ġreduce": 7912, "-left": 7913, "real": 7914, "Ġappears": 7915, "Ġcomo": 7916, "ĠUnit": 7917, "ĠGovern": 7918, "ali": 7919, "allel": 7920, "ĠJew": 7921, "_I": 7922, "Ġcos": 7923, ".color": 7924, "ĠGlobal": 7925, "Ġtele": 7926, "ben": 7927, "_trans": 7928, "Ġreasons": 7929, "Ġemb": 7930, "ensity": 7931, "lines": 7932, "omin": 7933, "Screen": 7934, "pects": 7935, "clip": 7936, "foo": 7937, "rent": 7938, "Ġaf": 7939, "Ġdanger": 7940, "iling": 7941, "Names": 7942, "Our": 7943, "Ġdistribution": 7944, "While": 7945, "SL": 7946, "Write": 7947, "Ġgoto": 7948, "Ġcolors": 7949, "Ġpowerful": 7950, "kin": 7951, "Ġdepth": 7952, "ercial": 7953, "ĠCongress": 7954, "ĠMarket": 7955, "Db": 7956, "under": 7957, "ĠLast": 7958, "ÃŁ": 7959, "greg": 7960, "Ġposts": 7961, "_URL": 7962, "otos": 7963, "Don": 7964, "Ġmicro": 7965, "Ġarrest": 7966, "Ġ(@": 7967, "ĠHot": 7968, "ĠIndex": 7969, ";&": 7970, "#!": 7971, "ĠNor": 7972, "ĠCap": 7973, "-(": 7974, "Ġinterested": 7975, "pear": 7976, "Ġrent": 7977, "Ġalbum": 7978, "olicy": 7979, ".lang": 7980, ".trans": 7981, ".format": 7982, "Ġ{čĊčĊ": 7983, "phere": 7984, "Ġaxis": 7985, "ĠBusiness": 7986, "ersistence": 7987, "urr": 7988, "Ġminimum": 7989, "endor": 7990, "ĠSD": 7991, "ĠInternet": 7992, "å¤": 7993, "Exp": 7994, "iverse": 7995, "MM": 7996, "Ġobvious": 7997, "Ġbasis": 7998, "Ġscience": 7999, "Ġbudget": 8000, "izations": 8001, "PA": 8002, "Ġflags": 8003, "pret": 8004, "LOCK": 8005, "Ġvariety": 8006, "Ġtruth": 8007, "dt": 8008, "Ġgone": 8009, "Ġbattle": 8010, "<std": 8011, "ĠSil": 8012, "rf": 8013, "uda": 8014, "Ġerot": 8015, "ĠCam": 8016, "Ġstation": 8017, "Ġ'</": 8018, "cheme": 8019, "ĠSun": 8020, "Ġfinished": 8021, "Ġshop": 8022, "ĠKore": 8023, "Ġeight": 8024, "_REG": 8025, "ND": 8026, ">,": 8027, "\"><?": 8028, "(num": 8029, "ĉinline": 8030, "Transaction": 8031, ".On": 8032, "Ġmail": 8033, "rey": 8034, "results": 8035, "Ġnav": 8036, "IMIT": 8037, "_ids": 8038, "Make": 8039, "åĬ": 8040, "Modal": 8041, "ĠLOG": 8042, "ĠSur": 8043, "Ġinstanceof": 8044, "Ġoverall": 8045, "ĠInformation": 8046, "Ġconstruction": 8047, "_FILE": 8048, "but": 8049, "Ġmedic": 8050, "Ġduration": 8051, "itness": 8052, "agent": 8053, "AV": 8054, "Ġseven": 8055, "olf": 8056, "Ġ}}Ċ": 8057, "\"],Ċ": 8058, "Ġcalling": 8059, "Ġans": 8060, "throws": 8061, "orizontal": 8062, "ĠuseState": 8063, ".fl": 8064, "ĠStatus": 8065, "ĠOnline": 8066, "RR": 8067, "ĠRich": 8068, "ĠHill": 8069, "Ġbrain": 8070, "Ġfollowed": 8071, "emic": 8072, "Ġslight": 8073, "Ġinsurance": 8074, ".Array": 8075, "Ġabstract": 8076, "ĠSum": 8077, "redirect": 8078, "owner": 8079, "(msg": 8080, "ĠClinton": 8081, "Non": 8082, "ĉex": 8083, "Ġvolume": 8084, "ĠEventArgs": 8085, "-L": 8086, "ĠDim": 8087, "ĠMart": 8088, "Ġcursor": 8089, "Ġimplementation": 8090, "urred": 8091, "Ġlarger": 8092, ");ĊĊĊ": 8093, "'+": 8094, ".transform": 8095, "Ġupload": 8096, "ĠĠĠĠĠĠĠĠĠĠĠĠĠĠĠĠĠĠĠĠĠĠĠĠĠĠĠĠĠĠĠĠĠĠĠĠĠĠĠĠĠĠĠĠĠĠĠĠĠĠĠĠĠĠĠ": 8097, "Draw": 8098, "nel": 8099, "ĉfloat": 8100, "qrt": 8101, "ĠNetwork": 8102, "Ġtit": 8103, "Axis": 8104, ".android": 8105, "Ġcompleted": 8106, "Ġmur": 8107, "Ġcolumns": 8108, "xc": 8109, "Ġsupply": 8110, "iminal": 8111, "Ġspr": 8112, "================================================================": 8113, "Ġunits": 8114, "(u": 8115, "mi": 8116, "replace": 8117, "[key": 8118, "à¹": 8119, "antic": 8120, "Ġpayment": 8121, ",B": 8122, "ĠApple": 8123, "gin": 8124, "Required": 8125, "#+": 8126, "lands": 8127, "Ġsqu": 8128, "Ġfactor": 8129, "dec": 8130, "Ġstrength": 8131, "Ġboy": 8132, "Ġbalance": 8133, "Ġsources": 8134, "screen": 8135, "-top": 8136, "ĠAmazon": 8137, "Ġhidden": 8138, "_client": 8139, "Ġeat": 8140, ".display": 8141, "ĠÂ»": 8142, "Ġtrigger": 8143, "anager": 8144, "Ġtro": 8145, "Ġclaims": 8146, "ford": 8147, "ĠCompany": 8148, "Ġgift": 8149, ",:": 8150, "_app": 8151, "handle": 8152, "Ġproduce": 8153, "/lib": 8154, "Ġ-*": 8155, "ĉset": 8156, "'];": 8157, "arc": 8158, "ander": 8159, "ĠEngine": 8160, "Ġattributes": 8161, "task": 8162, "<=": 8163, "(N": 8164, "Ġwarm": 8165, "which": 8166, "ĠFore": 8167, "agnost": 8168, "mys": 8169, "Ġtal": 8170, "ĠSal": 8171, "gi": 8172, "ĠPrint": 8173, "ĠTRUE": 8174, ".UI": 8175, "Ġflash": 8176, "roperty": 8177, ".location": 8178, "ĠMill": 8179, "bi": 8180, "contr": 8181, ".request": 8182, "ĠSam": 8183, "Ġnegative": 8184, "kit": 8185, "Ġsett": 8186, ".printStackTrace": 8187, "abe": 8188, "ĉi": 8189, "Ġburn": 8190, "Ġsociety": 8191, "Cache": 8192, "ĠSecurity": 8193, ".models": 8194, "ĠWARRANTY": 8195, "_up": 8196, "ceive": 8197, "Ġclients": 8198, ".Tr": 8199, "Ġproviding": 8200, "Ġrout": 8201, "material": 8202, "Ġ||Ċ": 8203, "ĠSer": 8204, "ĠOffice": 8205, "FTWARE": 8206, "Ġ'$": 8207, "Ġfoc": 8208, "Ġexcell": 8209, "Ġcat": 8210, "normal": 8211, "Ġdetermine": 8212, "ĉuint": 8213, "Pane": 8214, "Ġemployees": 8215, "ĠTexas": 8216, "Ġtraff": 8217, "ĠReport": 8218, "anta": 8219, "ĠBox": 8220, "Ġdjango": 8221, "Ġpartner": 8222, "EB": 8223, "LINE": 8224, "Ġfeeling": 8225, "Ġcivil": 8226, "(float": 8227, "Sql": 8228, "Ġwouldn": 8229, ".init": 8230, ".left": 8231, "-v": 8232, "_level": 8233, "'}": 8234, "AF": 8235, "Ġloading": 8236, "ĠOnly": 8237, "Ġcookies": 8238, "ĠGl": 8239, "CO": 8240, "Ġstrategy": 8241, "('./": 8242, "Ġship": 8243, "poses": 8244, "Ġsignal": 8245, "Ġalpha": 8246, ".pop": 8247, "Radius": 8248, "Ġreplace": 8249, "_DIR": 8250, "counter": 8251, "bservable": 8252, "ela": 8253, "Weight": 8254, "hash": 8255, "bose": 8256, "fx": 8257, "ĠEmail": 8258, "Ġrefer": 8259, "localhost": 8260, "_RO": 8261, "iques": 8262, "Step": 8263, "Ġahead": 8264, "(View": 8265, "ĠServices": 8266, "ĠJson": 8267, "essor": 8268, "Ġpun": 8269, "Ġappropriate": 8270, "akers": 8271, "osen": 8272, "posing": 8273, "Ġagent": 8274, "fc": 8275, "Ġtransfer": 8276, "Ġinvalid": 8277, "ĠResearch": 8278, "Vertex": 8279, "Ġgay": 8280, "Ġjournal": 8281, "[x": 8282, "Ġ\"\",Ċ": 8283, "ĠWell": 8284, ".Tasks": 8285, "Spec": 8286, "Ġol": 8287, "Ġspend": 8288, "ĠAustralia": 8289, "Match": 8290, ".junit": 8291, "ĠĠĠĠĠĠĠĠĠĠĠĠĠĠĠĠĠĠĠĠĠĠĠĠĠĠĠĠĠĠĠĠĠĠĠĠĠ": 8292, "ĠMAX": 8293, "izable": 8294, "clusive": 8295, "_valid": 8296, "Ġquarter": 8297, "yan": 8298, "ĠEdit": 8299, "arden": 8300, "=new": 8301, "Ġfrag": 8302, "Bit": 8303, "zi": 8304, "aine": 8305, "udd": 8306, ".Object": 8307, "debug": 8308, "Ġcash": 8309, "_IM": 8310, "Ġeen": 8311, "Ġcommercial": 8312, "ĠVideo": 8313, "loader": 8314, "Ġfixed": 8315, "Ġapplications": 8316, "Ġ_,": 8317, "ĠRussia": 8318, "itect": 8319, "_(": 8320, "ĠBlock": 8321, "Ġsan": 8322, "ĠTom": 8323, "Ġperhaps": 8324, "Ġsig": 8325, "levant": 8326, "Ġcorpor": 8327, "ataset": 8328, "ronic": 8329, "xe": 8330, "Ġeth": 8331, "Some": 8332, "pop": 8333, "_OK": 8334, "Ġtend": 8335, ".Res": 8336, "_and": 8337, "Ġreviews": 8338, "Ġwild": 8339, "Ġdegree": 8340, ".O": 8341, ".objects": 8342, "_args": 8343, "nil": 8344, "Ġdisabled": 8345, "Parent": 8346, "Ġnotes": 8347, "Ġ\"\"Ċ": 8348, "(state": 8349, "istrict": 8350, "Ġlogging": 8351, ".IO": 8352, "ĠMal": 8353, "DM": 8354, "Ġxml": 8355, "ĠRobert": 8356, "elen": 8357, "layout": 8358, "fol": 8359, "']))": 8360, ",b": 8361, "ĠJer": 8362, "filename": 8363, "Ġfan": 8364, "ĠCustom": 8365, "=\"\"": 8366, "ĠDie": 8367, "Bundle": 8368, ".utils": 8369, "Ġtrip": 8370, "MB": 8371, "Ġsoft": 8372, "_MODE": 8373, "Ġapplicable": 8374, "Ġupper": 8375, "ERVER": 8376, "_al": 8377, "_LOG": 8378, "Here": 8379, "wp": 8380, "ĠServer": 8381, "ĠClient": 8382, "Ġchem": 8383, "Scroll": 8384, "Ġhighest": 8385, "ĠSelect": 8386, "Ġ\"@": 8387, "ĠWhy": 8388, "Sec": 8389, "heel": 8390, "Operation": 8391, "Ġconnected": 8392, "irmed": 8393, "Ġcitiz": 8394, "ĠChe": 8395, "Ġforces": 8396, "Ġwww": 8397, "Root": 8398, "ANCE": 8399, "Many": 8400, "icip": 8401, "rgan": 8402, "ĠTor": 8403, "ĠPress": 8404, "ĠMor": 8405, "-line": 8406, "uled": 8407, ">\\": 8408, "Ġthus": 8409, "ĠRegister": 8410, "hol": 8411, "ĠChinese": 8412, "Ġposted": 8413, "Ġmagn": 8414, "abilities": 8415, "Ġdisease": 8416, "Ġremains": 8417, "ĠProf": 8418, "-form": 8419, "Ġcin": 8420, "organ": 8421, "icate": 8422, "Ġstress": 8423, "]*": 8424, "Ġ----------------------------------------------------------------": 8425, "_context": 8426, "orry": 8427, "Ġdied": 8428, "mat": 8429, "Ġstarts": 8430, ".Message": 8431, "Ġruns": 8432, "Ġguide": 8433, "Ġwarranty": 8434, "entials": 8435, "dict": 8436, "ĠSize": 8437, "uler": 8438, "Ġresponsible": 8439, "_SET": 8440, "Ġcontaining": 8441, "ĠPrice": 8442, "||": 8443, "FS": 8444, "Ġemp": 8445, "_button": 8446, "(uint": 8447, "Ġsuff": 8448, "pth": 8449, "Ġdefinitely": 8450, "pute": 8451, "Ġmarketing": 8452, "ĠWH": 8453, "ĠSie": 8454, "+=": 8455, "OLOR": 8456, "Ġconsult": 8457, "Ġsigned": 8458, "Ġsequence": 8459, "lee": 8460, "Ġrequirements": 8461, "hy": 8462, "Express": 8463, "MT": 8464, "sey": 8465, "Ġult": 8466, "å®": 8467, "elligence": 8468, "Ġanaly": 8469, "Ġdress": 8470, "engine": 8471, "ĠGreat": 8472, "ĠAndroid": 8473, "ĠAlex": 8474, "mode": 8475, "Dictionary": 8476, ".Date": 8477, "ä½": 8478, "VICE": 8479, "Ġfamilies": 8480, "ĠRussian": 8481, "ĠTimes": 8482, ".call": 8483, "$(": 8484, "Profile": 8485, "Ġfolder": 8486, "ches": 8487, "Ġlegis": 8488, "_row": 8489, "unes": 8490, "Ġ}).": 8491, "Assert": 8492, "agen": 8493, "ĠHand": 8494, "Iter": 8495, "Ġbiggest": 8496, "oreach": 8497, "Ġpolic": 8498, "Ġpermissions": 8499, "Ġshowed": 8500, "ĠElement": 8501, "Ġtopic": 8502, "âĢĶâĢĶ": 8503, "road": 8504, "ĠBank": 8505, "record": 8506, "Ġpartners": 8507, "ĠRef": 8508, "essions": 8509, "Ġassess": 8510, "UST": 8511, "ĠParty": 8512, "produ": 8513, "LC": 8514, "Ġul": 8515, ".form": 8516, "hide": 8517, "copy": 8518, "UTF": 8519, "ĠSOFTWARE": 8520, "čĊčĊčĊ": 8521, "ĠLin": 8522, "una": 8523, "ugar": 8524, "Ġadministration": 8525, "Ġopening": 8526, "Ġscan": 8527, "Ġcontinued": 8528, "component": 8529, ".sp": 8530, "Ġhappens": 8531, "ummy": 8532, "ĠPR": 8533, ".File": 8534, "ĠDownload": 8535, "Loading": 8536, "di": 8537, "Ġwaiting": 8538, "_ADD": 8539, "Tab": 8540, ".querySelector": 8541, "Ġeconomy": 8542, "ĠFrench": 8543, "txt": 8544, "Ġfant": 8545, "_;Ċ": 8546, "Holder": 8547, "SH": 8548, "Ġnumpy": 8549, "Ġstreet": 8550, "Ġmale": 8551, "\\Model": 8552, "anging": 8553, "ĠBill": 8554, "Ġpreviously": 8555, "BI": 8556, "ĠSecret": 8557, "Ġmist": 8558, "ĠField": 8559, "ups": 8560, "ĠProcess": 8561, "Ġkept": 8562, "ĠOT": 8563, "Ġtraditional": 8564, ".i": 8565, "amin": 8566, "Ġhelps": 8567, "Any": 8568, "origin": 8569, "ilters": 8570, "ju": 8571, "desc": 8572, "ĠAccount": 8573, "Ġ)čĊ": 8574, "ktop": 8575, "olly": 8576, "Ġfs": 8577, "Ġê": 8578, "Ġut": 8579, "Ġcentral": 8580, "(test": 8581, ".An": 8582, "Ġsatisf": 8583, "GR": 8584, "ĠFull": 8585, "Ġheat": 8586, "iber": 8587, "Ġonto": 8588, "mos": 8589, "Schema": 8590, "Ġfactory": 8591, "\".$": 8592, "aws": 8593, "Statement": 8594, "(target": 8595, "ĉnew": 8596, ".be": 8597, "Ġguest": 8598, "Ġmal": 8599, "ARY": 8600, "Ġreached": 8601, "Ġmouse": 8602, "Ġchallenge": 8603, "ĉdouble": 8604, "ĠTem": 8605, "Ġterror": 8606, "Ġextract": 8607, "_TO": 8608, "Ġseparate": 8609, "Ġmir": 8610, "help": 8611, "Ġcapacity": 8612, "ĠProperty": 8613, "kan": 8614, "_create": 8615, "ĠLight": 8616, ".parent": 8617, "Ġunderstanding": 8618, "Ġeasier": 8619, "Ġ|=": 8620, "Ġenh": 8621, "Ġfat": 8622, "Ġprotest": 8623, "amm": 8624, "_AT": 8625, "-of": 8626, "ils": 8627, "ĠOh": 8628, "Ġpsych": 8629, "Ġ$.": 8630, "inds": 8631, "Ġrelative": 8632, "shop": 8633, "short": 8634, "ĠSand": 8635, "uestion": 8636, "Ġfear": 8637, "/ĊĊ": 8638, ".context": 8639, "Ġschools": 8640, "Ġserve": 8641, "zone": 8642, "_db": 8643, "Ġmajority": 8644, "example": 8645, "Ġlang": 8646, "ĉĠĠ": 8647, "Register": 8648, "endo": 8649, "Ġprocessing": 8650, "_template": 8651, "-user": 8652, "Ġeg": 8653, "COM": 8654, "ĠBlue": 8655, "iro": 8656, "Ġremote": 8657, "ĠIT": 8658, "#!/": 8659, "Ġredistrib": 8660, "raz": 8661, "ĠSince": 8662, "ĠTur": 8663, "Background": 8664, "===": 8665, "Ġreflect": 8666, "Ġpros": 8667, "cmd": 8668, "Ġwhom": 8669, "Compat": 8670, "ĠAre": 8671, "Identifier": 8672, "ĠThom": 8673, "_port": 8674, "gu": 8675, "Ġmonitor": 8676, "rm": 8677, "Ġpatient": 8678, "verter": 8679, "Ġgain": 8680, "-ui": 8681, "Inst": 8682, "Ġdies": 8683, "Area": 8684, "_filter": 8685, "Ġgrat": 8686, "Ġreality": 8687, "ordinate": 8688, "olved": 8689, "Contact": 8690, "Ġcompliance": 8691, "_or": 8692, "ĠVar": 8693, "dl": 8694, "Ġappend": 8695, "GER": 8696, "(max": 8697, ".render": 8698, "Ġdynamic": 8699, "ordinates": 8700, "_options": 8701, "_column": 8702, "Ġbatter": 8703, "space": 8704, "La": 8705, "ĠSource": 8706, "/bin": 8707, "Ġdos": 8708, "ĠBoard": 8709, "ĠThread": 8710, "ĠAL": 8711, "(config": 8712, "ĠMer": 8713, "Ġmiles": 8714, "_header": 8715, "ETHOD": 8716, "izz": 8717, "Ġbenefit": 8718, "Ġintegr": 8719, "(current": 8720, "ulo": 8721, ".default": 8722, "ĠDiv": 8723, "Ġton": 8724, "oth": 8725, "ervation": 8726, "edom": 8727, "Ġbaby": 8728, "ceived": 8729, ".top": 8730, "riority": 8731, "ĠLocal": 8732, "riage": 8733, "Ġattacks": 8734, "Ġhospital": 8735, "Ġfemale": 8736, "ĠLogin": 8737, "ĠFlor": 8738, "Ġchain": 8739, "ashion": 8740, "Texture": 8741, "Save": 8742, "Ġfarm": 8743, ".contains": 8744, ".Test": 8745, "Ġknows": 8746, "Ġgenerally": 8747, "ipeline": 8748, "Ġmeant": 8749, "encia": 8750, "Ġnicht": 8751, "Ġcontents": 8752, "PM": 8753, "chedule": 8754, "(line": 8755, "CG": 8756, "job": 8757, "ĠReal": 8758, "uer": 8759, "firm": 8760, "ĠØ": 8761, "etro": 8762, "\"`Ċ": 8763, "Ġspeech": 8764, "Ġthr": 8765, "foreach": 8766, "Ġwarn": 8767, "ĉl": 8768, "Ġheavy": 8769, "<li": 8770, "Ne": 8771, "Ġinvestigation": 8772, "Math": 8773, "-title": 8774, "Ġchurch": 8775, "Ġdespite": 8776, "chain": 8777, "Ġwhatever": 8778, "arian": 8779, "fn": 8780, "Ġmeta": 8781, "})ĊĊ": 8782, "UFF": 8783, "Ġregarding": 8784, "_SUCCESS": 8785, "mes": 8786, "ĠIntent": 8787, "Ġresolve": 8788, "poss": 8789, "ira": 8790, "force": 8791, "oice": 8792, "Ã¢": 8793, "Ġpm": 8794, "Ġupdates": 8795, "Arr": 8796, "ĠÑ": 8797, "testing": 8798, "Ġtoward": 8799, "ntax": 8800, "ëĭ": 8801, "Ġlisten": 8802, "Ġgoals": 8803, "InstanceState": 8804, "Dr": 8805, "Ġrare": 8806, "Ġtrail": 8807, "Keys": 8808, "Cal": 8809, "Car": 8810, "ĠPeople": 8811, "ĉlocal": 8812, "classes": 8813, "Reference": 8814, ".forEach": 8815, "emb": 8816, "activ": 8817, "Ġprim": 8818, "redict": 8819, "Ġrad": 8820, "æķ°": 8821, ".Back": 8822, "Ġspread": 8823, "Ġclock": 8824, "Ġvir": 8825, "editor": 8826, "Ġefforts": 8827, "Ġbranch": 8828, "Ġindust": 8829, "Ġmotor": 8830, "Ġamb": 8831, "Ġdatetime": 8832, "Ġrencont": 8833, "ĠChristian": 8834, "ĠAmericans": 8835, "full": 8836, "Ġfmt": 8837, ".main": 8838, "Ġcaused": 8839, "_update": 8840, "ĠContent": 8841, "ATCH": 8842, "Ġbath": 8843, "ĠEach": 8844, "Ġradio": 8845, "achment": 8846, "uzz": 8847, "Submit": 8848, "Ġrestrict": 8849, "abin": 8850, "ĠLoad": 8851, "Ġextension": 8852, "Ġessay": 8853, "Ġhat": 8854, "aviour": 8855, "toBe": 8856, "\":[": 8857, "Ġoffered": 8858, "Ġvill": 8859, "(double": 8860, "æĹ¥": 8861, "bc": 8862, "_free": 8863, "ĠMiss": 8864, "ĠBer": 8865, "Ġè": 8866, "ĠLike": 8867, "Ġhelped": 8868, ".getName": 8869, "_AL": 8870, "Ġspirit": 8871, "ĠApache": 8872, "ws": 8873, "Ġtherefore": 8874, "(params": 8875, "_img": 8876, "Ġpeace": 8877, "Ġincor": 8878, "ĠEXPECT": 8879, "Ġminor": 8880, "ipes": 8881, "ĉdata": 8882, "selector": 8883, "city": 8884, "trie": 8885, ".base": 8886, "_frame": 8887, "Ġopened": 8888, "/json": 8889, "LY": 8890, "nu": 8891, ".De": 8892, "tf": 8893, "margin": 8894, ".Parse": 8895, "Ġpi": 8896, "Ġeq": 8897, "bd": 8898, "Fields": 8899, "ĠTree": 8900, "Ġban": 8901, "istan": 8902, "ĊĠĠĠĠĠĠĠĠĊ": 8903, "ĉgl": 8904, "Ġproduced": 8905, "system": 8906, "Mark": 8907, "_hash": 8908, "Ġbg": 8909, "Ġconstit": 8910, "ĠLeague": 8911, "Ġmission": 8912, "_format": 8913, "([Ċ": 8914, "clusion": 8915, "!\"": 8916, "break": 8917, "ĉswitch": 8918, "Ġther": 8919, "Transform": 8920, "Ġfootball": 8921, "-link": 8922, "route": 8923, ".auth": 8924, "Ġbag": 8925, "overs": 8926, "Ġenabled": 8927, "Ġrac": 8928, "(I": 8929, "CR": 8930, "ancing": 8931, "Ġmanaged": 8932, "_q": 8933, "NGTH": 8934, "Ġmac": 8935, "ĠAuto": 8936, "amente": 8937, "Ġ'',": 8938, ".Append": 8939, "Ġpin": 8940, ".item": 8941, "acking": 8942, "Ġoccas": 8943, "person": 8944, "Ġti": 8945, ".Reg": 8946, "Ġhaven": 8947, "Ġglass": 8948, "Ġ\"</": 8949, "ĠSimple": 8950, "Print": 8951, "Ġsurround": 8952, "NO": 8953, "ãĢĤĊ": 8954, "ĠĠĠĠĠĠĠĠčĊ": 8955, "ĠMany": 8956, "Ġ\"_": 8957, "Ġweekend": 8958, "Ġsomew": 8959, ".params": 8960, "small": 8961, "ATED": 8962, "Ġplugin": 8963, "fields": 8964, "ĠInitialize": 8965, "oon": 8966, "atile": 8967, "ye": 8968, "Ġvous": 8969, "LAG": 8970, "Ġolder": 8971, "Ġgam": 8972, "Ġextremely": 8973, "Ġhet": 8974, "enum": 8975, "ĠSET": 8976, "xff": 8977, "Ġtimer": 8978, "/index": 8979, "Ġcritical": 8980, "Rows": 8981, "_argument": 8982, "Ġexecute": 8983, "Ġshowing": 8984, ".xml": 8985, "-list": 8986, "Role": 8987, "typename": 8988, "_method": 8989, "that": 8990, "cher": 8991, "ĠâĨ": 8992, "XT": 8993, "Ġthousands": 8994, "ĉn": 8995, "Ġresp": 8996, "_price": 8997, "olut": 8998, "Ag": 8999, "ĠTwo": 9000, "Ġbecomes": 9001, "Ġhus": 9002, ".Use": 9003, "theme": 9004, "urb": 9005, "Ġ/*Ċ": 9006, "erialize": 9007, "ARN": 9008, "Ġlose": 9009, "Lower": 9010, "Ġvel": 9011, "Ġdefense": 9012, "condition": 9013, "Ġbes": 9014, "Ġdry": 9015, "Ġscroll": 9016, ".Show": 9017, "IEL": 9018, "ĠRest": 9019, "Where": 9020, "oods": 9021, "ĠJes": 9022, "Ġwire": 9023, "_INFO": 9024, "Ġstrings": 9025, "gment": 9026, "Ġmatches": 9027, "Ġelectric": 9028, "Ġexcellent": 9029, "ĠCouncil": 9030, "idade": 9031, "Ġwx": 9032, "push": 9033, "_entry": 9034, "Ġtasks": 9035, "Ġrich": 9036, "sa": 9037, "ĠSmith": 9038, "UNCTION": 9039, "Pointer": 9040, "pective": 9041, "Ġwidget": 9042, "ista": 9043, "Ġagency": 9044, "Ġsich": 9045, "ologies": 9046, "Ġtrial": 9047, "alysis": 9048, ".check": 9049, "ARK": 9050, "ĠonChange": 9051, "about": 9052, "',$": 9053, "(val": 9054, "Ġplaced": 9055, "_NO": 9056, "Ġdan": 9057, ".equal": 9058, "ĉĠĠĠĠĠ": 9059, "Ġweather": 9060, ".game": 9061, "Ġdestination": 9062, "_USER": 9063, "iece": 9064, "Ġprovider": 9065, ".last": 9066, "plex": 9067, "Note": 9068, "/js": 9069, "ĠpÃ¥": 9070, "Ġplanning": 9071, "attribute": 9072, "PRO": 9073, "atches": 9074, "Ġ<-": 9075, "Ġseeing": 9076, "Ġcancel": 9077, "_ind": 9078, ".keys": 9079, "Ġvisual": 9080, "ĠCurrent": 9081, "ĠCollege": 9082, "ĠRock": 9083, "Ġagreement": 9084, "ĠStore": 9085, "oving": 9086, "Ġcorner": 9087, "ampions": 9088, "ISE": 9089, "Fin": 9090, "Ġprotection": 9091, "Ġfi": 9092, "Play": 9093, "plugin": 9094, ")}": 9095, ".frame": 9096, "-z": 9097, "Ġtransition": 9098, "igin": 9099, "Ġcandidate": 9100, "ĠUnion": 9101, "_values": 9102, "(map": 9103, "cle": 9104, "Ġtrend": 9105, "wide": 9106, "aren": 9107, "Loc": 9108, "UTH": 9109, "ĠBay": 9110, "Ġsmaller": 9111, "ius": 9112, "well": 9113, "Ġcriminal": 9114, "Ġconflic": 9115, "bert": 9116, "_INT": 9117, "Ġinvestment": 9118, "custom": 9119, "ĠSession": 9120, "_write": 9121, "ania": 9122, "ĠMass": 9123, "_EQ": 9124, "_NOT": 9125, "Ġviolence": 9126, "Argument": 9127, "_email": 9128, "Ġbelong": 9129, "_function": 9130, "Ġenemy": 9131, "ema": 9132, "ĠAddress": 9133, ".empty": 9134, "Ġinner": 9135, "ĠContact": 9136, "Loader": 9137, "<input": 9138, "ĠCA": 9139, "lot": 9140, "Ġpictures": 9141, "ĠSupport": 9142, "_names": 9143, "Layer": 9144, "ĠClick": 9145, "Sum": 9146, "Ã¦": 9147, "ĠLook": 9148, "uous": 9149, "Lib": 9150, "Flags": 9151, "team": 9152, "EP": 9153, "hat": 9154, "override": 9155, "apsed": 9156, "Ġlabels": 9157, "quis": 9158, "ĠStream": 9159, "_device": 9160, "ĠCommit": 9161, "(root": 9162, "\"}": 9163, ".isEmpty": 9164, "ĉM": 9165, "Ġangle": 9166, "ĠBecause": 9167, "%%%%%%%%": 9168, "Ġaim": 9169, "Ġstick": 9170, "stmt": 9171, "agraph": 9172, "answer": 9173, "Ġclin": 9174, "ĠIsl": 9175, ".ext": 9176, "ĠINT": 9177, "Ġstyles": 9178, "Ġborn": 9179, "Ġscr": 9180, "Ġexpand": 9181, "Ġraised": 9182, "TextBox": 9183, "ILL": 9184, "------------------------------------------------": 9185, "HTTP": 9186, ">)": 9187, "_char": 9188, "resource": 9189, "Ġepisode": 9190, "Ġ'_": 9191, "ĠEs": 9192, "ĠEarth": 9193, "ÂłÂł": 9194, "UPDATE": 9195, "ĠSou": 9196, "uis": 9197, "types": 9198, "Ġmas": 9199, "Ġfav": 9200, "Ġconstruct": 9201, "_rate": 9202, "eras": 9203, "Ġ|Ċ": 9204, "roperties": 9205, "Ġexternal": 9206, "Ġapplied": 9207, "Ġprefix": 9208, "oted": 9209, "lers": 9210, "Ġcold": 9211, "ĠSP": 9212, "ĠChurch": 9213, "ĠOutput": 9214, "losed": 9215, "çļ": 9216, "ificate": 9217, "operation": 9218, "herit": 9219, "xFF": 9220, ".env": 9221, "_err": 9222, "osh": 9223, "Direction": 9224, "Cancel": 9225, "ĠFrank": 9226, "Ġfinding": 9227, ".)ĊĊ": 9228, "Ġrouter": 9229, "ses": 9230, "Ġcrow": 9231, "=='": 9232, "Ġsand": 9233, "Ġrid": 9234, "iture": 9235, "Ġentre": 9236, "Ġobserv": 9237, "Ġvac": 9238, "ðŁ": 9239, "-T": 9240, "Art": 9241, "night": 9242, ".search": 9243, "Ġexchange": 9244, "Ġdistrict": 9245, ".os": 9246, "Ġdepartment": 9247, "Ġdocuments": 9248, "Ġcentury": 9249, "ĠNext": 9250, "Host": 9251, "ĠKIND": 9252, "Ġsusp": 9253, "-P": 9254, "rend": 9255, ".em": 9256, "uite": 9257, "isters": 9258, "(json": 9259, "ĠAnn": 9260, "wt": 9261, "ati": 9262, "ĠHTML": 9263, "when": 9264, "Directory": 9265, "Ġshut": 9266, "<a": 9267, "edy": 9268, "Ġhealthy": 9269, "Ġtemperature": 9270, "ĠGen": 9271, "Ġmetal": 9272, "Ġsubmit": 9273, "ĠDO": 9274, "Ġattract": 9275, "Ġ{};Ċ": 9276, "ĠWord": 9277, "Ġll": 9278, "Ġseemed": 9279, "ko": 9280, "IED": 9281, "Ġlabor": 9282, ".Context": 9283, "Ġasset": 9284, "you": 9285, "Ġcars": 9286, "ĠColumn": 9287, "ĠrÃ©": 9288, "Ġsquare": 9289, "ĠNSString": 9290, "âĢĿ,": 9291, "apes": 9292, "...Ċ": 9293, "Ġthanks": 9294, "(props": 9295, "Ġtick": 9296, "Ġexperiment": 9297, "Ġprison": 9298, "tree": 9299, "-text": 9300, "ĠIOException": 9301, "-width": 9302, "_STATUS": 9303, "fast": 9304, "-body": 9305, "-header": 9306, "Ġguar": 9307, "crete": 9308, "ĠTim": 9309, "Ġclearly": 9310, "ĠRepublican": 9311, "Ġjustify": 9312, "ĉĠĠĠĠ": 9313, "cache": 9314, ";//": 9315, "Ġpresence": 9316, "Ġfactors": 9317, "Ġemployee": 9318, "]))": 9319, "Member": 9320, "Ġselector": 9321, "bor": 9322, "ĠMex": 9323, "çļĦ": 9324, "utex": 9325, "_tag": 9326, "ailure": 9327, "ĠNet": 9328, "Ġreli": 9329, "EG": 9330, "Ġfprintf": 9331, "Ġteen": 9332, "loss": 9333, "Ġleaving": 9334, "Delegate": 9335, "Ġbeat": 9336, "Ġminute": 9337, "subscribe": 9338, "Ġredistribute": 9339, "Constants": 9340, "Ġcancer": 9341, "/{": 9342, "BL": 9343, "Ġspan": 9344, "ĠChild": 9345, "Center": 9346, "Ġearth": 9347, "YS": 9348, "ĠLevel": 9349, "Ġsea": 9350, ".support": 9351, ".inner": 9352, ".Item": 9353, "illing": 9354, "ĠĠĠĠĊĠĠĠĠĊ": 9355, "ĠLabel": 9356, "ĠEst": 9357, "(arg": 9358, "boBox": 9359, "ĉforeach": 9360, "cos": 9361, "Failed": 9362, "swers": 9363, "Editor": 9364, "ront": 9365, "ĠMP": 9366, "expr": 9367, "ĠLife": 9368, "Ġ??": 9369, "Ã¶r": 9370, "Ġattend": 9371, "ĠQue": 9372, "Ġspecies": 9373, "-D": 9374, "Ġaus": 9375, "Struct": 9376, "Ġadvantage": 9377, "oston": 9378, "-block": 9379, "initial": 9380, "CRE": 9381, "Ġtruly": 9382, "Ġcompare": 9383, "orney": 9384, "Ġspect": 9385, "Full": 9386, "bes": 9387, "Ġvisible": 9388, "Ġmess": 9389, "stances": 9390, "Ġcloud": 9391, "_version": 9392, "Ġfurn": 9393, "icago": 9394, "LOW": 9395, "Ġtraffic": 9396, "Ġfol": 9397, "rypto": 9398, "Ġdeclar": 9399, "Ġslot": 9400, "ĠExt": 9401, "ĠEngland": 9402, "ĠUnder": 9403, "Ġta": 9404, "letter": 9405, "Ġofficer": 9406, "ĠDonald": 9407, "Yes": 9408, "_json": 9409, "ITableView": 9410, "ĠUSE": 9411, "mployee": 9412, "Ġopinion": 9413, "ĠAut": 9414, "border": 9415, "Ġadvice": 9416, "Ġautomatically": 9417, "isco": 9418, "Ġmm": 9419, ".vis": 9420, "aml": 9421, "Ġinitialize": 9422, "Ġ({": 9423, "Ġ;ĊĊ": 9424, "Ġgeneration": 9425, "Ġbits": 9426, "clipse": 9427, "Ġunf": 9428, "utors": 9429, "plt": 9430, "Ġdelta": 9431, "estroy": 9432, "isis": 9433, "<br": 9434, "Ġlimitations": 9435, "Ġended": 9436, "ĠMad": 9437, "ilm": 9438, "These": 9439, "ĠMinister": 9440, "Ġchart": 9441, "Fragment": 9442, "Ġindependent": 9443, "Year": 9444, "Ġinstr": 9445, "Ġtags": 9446, "AVE": 9447, "ĠArch": 9448, "stop": 9449, "Progress": 9450, "Ġmi": 9451, "Ġlearned": 9452, "Ge": 9453, "Ġhotel": 9454, "SM": 9455, "TYPE": 9456, "Ġcy": 9457, "ERSION": 9458, "unately": 9459, "limit": 9460, "sel": 9461, "Ġmovies": 9462, "Ġsteel": 9463, "oz": 9464, "gb": 9465, "ĠCamp": 9466, "site": 9467, "ĠLogger": 9468, "PLE": 9469, ".right": 9470, "ĠCore": 9471, "Ġmixed": 9472, "step": 9473, "Ġputs": 9474, "super": 9475, "Router": 9476, ".Http": 9477, "lyph": 9478, "ĠColors": 9479, "Ġandroidx": 9480, ".str": 9481, "Ġinnov": 9482, "Ġdeck": 9483, "'>Ċ": 9484, "apers": 9485, "](": 9486, "continue": 9487, "spec": 9488, "ĠRoad": 9489, "ASH": 9490, "iliar": 9491, "Ġcontinues": 9492, "Ġappoint": 9493, "Ġ#Ċ": 9494, "ĠVir": 9495, "Ġ?>\"": 9496, "Ġbin": 9497, "}\",": 9498, "going": 9499, "each": 9500, "BD": 9501, "ĠAccess": 9502, "Doc": 9503, "ĠManagement": 9504, "BER": 9505, "asket": 9506, ".getInstance": 9507, "Ġestablished": 9508, "socket": 9509, "INS": 9510, "ĉvirtual": 9511, "ĉresult": 9512, "READ": 9513, "_height": 9514, "ĠFont": 9515, "Ġ();Ċ": 9516, "_html": 9517, "Ġneighbor": 9518, "lor": 9519, "Ġgather": 9520, "Ġ})ĊĊ": 9521, "Ġidentity": 9522, "Ġfab": 9523, "padding": 9524, "ĠRoute": 9525, "Enumerable": 9526, "Ã´": 9527, "Ġforced": 9528, "/jquery": 9529, ".ĊĊĊĊĊĊ": 9530, "resents": 9531, "_left": 9532, ".Param": 9533, "ĉthrow": 9534, "ĠHam": 9535, "Ġeventually": 9536, "acer": 9537, "pub": 9538, "Ġtra": 9539, "unique": 9540, "del": 9541, "ĠFlorida": 9542, "ĠClean": 9543, "xa": 9544, "ĠÂ·": 9545, "Ġvalidate": 9546, "Visual": 9547, "Expression": 9548, "_func": 9549, "member": 9550, "ĉh": 9551, "trl": 9552, "ĉG": 9553, "napshot": 9554, "ĠPropTypes": 9555, "vin": 9556, "])ĊĊ": 9557, "owl": 9558, "ifies": 9559, "Ġ$('.": 9560, "ĠContext": 9561, "ĠToast": 9562, ".Key": 9563, "Ġofficers": 9564, "/n": 9565, "sn": 9566, "undefined": 9567, ".items": 9568, "utow": 9569, "amage": 9570, "Ġaccounts": 9571, "ookie": 9572, "Section": 9573, "icians": 9574, "Ġadvis": 9575, "(is": 9576, "[:,": 9577, "ĠFrance": 9578, "Func": 9579, "icious": 9580, "Ġtok": 9581, "Channel": 9582, "ĠAD": 9583, "_NUM": 9584, "Ġtimeout": 9585, "lemma": 9586, "reme": 9587, "uj": 9588, ".Al": 9589, "uclear": 9590, "(os": 9591, "(\"<": 9592, "[Ċ": 9593, "fetch": 9594, "Ġbal": 9595, "Ġguid": 9596, "-align": 9597, "ĠWrite": 9598, "ĠOnce": 9599, "utowired": 9600, "ODULE": 9601, "Ġpitch": 9602, "CF": 9603, "bytes": 9604, "ĠCommission": 9605, "Ġincred": 9606, "PER": 9607, "_response": 9608, "ĠLos": 9609, "parser": 9610, "Ġassume": 9611, ".Request": 9612, "ĠToken": 9613, "_position": 9614, "Ġnom": 9615, "-term": 9616, "Ġremaining": 9617, "iostream": 9618, "Ġpieces": 9619, "apy": 9620, "ĠLess": 9621, "range": 9622, "umbn": 9623, "prise": 9624, "_option": 9625, "Impl": 9626, "kwargs": 9627, "Ġbusinesses": 9628, "Alert": 9629, "Ġparties": 9630, "ĠContainer": 9631, "ĠPrivate": 9632, "ĠPlan": 9633, "Ġregistered": 9634, "Ġjour": 9635, "acker": 9636, "/>": 9637, "chat": 9638, "sect": 9639, "Ġcreation": 9640, "olutely": 9641, "Ġinstant": 9642, "Ġdelivery": 9643, "icken": 9644, "yes": 9645, "ĠFranc": 9646, "bling": 9647, "enda": 9648, "[(": 9649, "_range": 9650, "ĠĠĠĠĠĠĠĠĠĠĠĠĠĠĠĠĠĠĠĠĠĠĠĠĠĠĠĠĠĠĠĠĠĠ": 9651, "Ġschedule": 9652, "Conn": 9653, "Ġthank": 9654, "xd": 9655, "Ġhook": 9656, "Ġdocumentation": 9657, "Parameters": 9658, "Hello": 9659, "vt": 9660, "Ġarticles": 9661, "Ġwest": 9662, "defined": 9663, ".select": 9664, "okens": 9665, "ĠVAL": 9666, ".file": 9667, "reset": 9668, "Ġmys": 9669, "ĠMA": 9670, "]),": 9671, "Ġcities": 9672, "related": 9673, "åĽ": 9674, "Ġappeared": 9675, "Ġwid": 9676, ".panel": 9677, "ĠIns": 9678, ".entity": 9679, "Ġdecre": 9680, "ĠLou": 9681, "(time": 9682, "ĠThank": 9683, ".createElement": 9684, "Ġmentioned": 9685, "ounce": 9686, "ĠTry": 9687, "ĠWall": 9688, "/images": 9689, "ĠMenu": 9690, "'čĊ": 9691, "ĠEr": 9692, "Ġcritic": 9693, "ĠYear": 9694, "(param": 9695, "Ġflo": 9696, "NN": 9697, "ooter": 9698, "Ġ];Ċ": 9699, "ĠAff": 9700, "\"github": 9701, "rooms": 9702, "Ġhyp": 9703, "global": 9704, "Ġavec": 9705, "æľĪ": 9706, "Ġcompletion": 9707, "Ġcond": 9708, "onymous": 9709, "(temp": 9710, "Ġstars": 9711, "Ġrelevant": 9712, "Ġcovered": 9713, "Ġelim": 9714, "_types": 9715, "(bool": 9716, "Ġtu": 9717, "_exists": 9718, "Ġsecure": 9719, "Ġstored": 9720, "]/": 9721, "xF": 9722, "ĠController": 9723, "Ġmigr": 9724, "MI": 9725, "ĠDen": 9726, "Ġannual": 9727, "UIL": 9728, "-and": 9729, "Ġcrime": 9730, "bel": 9731, "Ġkitchen": 9732, "@g": 9733, "_ph": 9734, "ournament": 9735, "ĠSocial": 9736, "ĠSpecial": 9737, "logger": 9738, "Ġtail": 9739, "Ġunknown": 9740, "ded": 9741, "Ġapprec": 9742, "(db": 9743, "cf": 9744, "Ġassign": 9745, "-out": 9746, "ĠMont": 9747, "dp": 9748, "widget": 9749, "Ġstone": 9750, "-primary": 9751, ".grid": 9752, "Results": 9753, "azz": 9754, "Ġdaughter": 9755, "Ġcurr": 9756, "Ġlin": 9757, "Ġsouth": 9758, "forms": 9759, "ĠOUT": 9760, "lette": 9761, "aks": 9762, "igure": 9763, "ĠEU": 9764, "variable": 9765, "Ġbrief": 9766, "ĠScott": 9767, "Ġconference": 9768, "anda": 9769, "_lock": 9770, "oral": 9771, "Ġeine": 9772, "ORS": 9773, "////////////////////////////////////////////////////////////////": 9774, "esso": 9775, "Ġris": 9776, "Ġgender": 9777, "estic": 9778, "License": 9779, "(out": 9780, "Ġms": 9781, "See": 9782, "Ġwilling": 9783, "aze": 9784, "Ġsports": 9785, "Ġyes": 9786, "lu": 9787, "Ġpurs": 9788, "/javascript": 9789, "-pro": 9790, "navbar": 9791, "_product": 9792, "/bootstrap": 9793, "Ġdriving": 9794, "ĠÄ": 9795, "Ġpropos": 9796, "ultip": 9797, "uplic": 9798, ".email": 9799, "Ġapprox": 9800, "(cl": 9801, "Ġwear": 9802, "Ġreply": 9803, "asset": 9804, "Ġice": 9805, "Ġtx": 9806, "kr": 9807, "ĠGermany": 9808, "ĠGeorge": 9809, "Ġcb": 9810, "ĉerr": 9811, "Move": 9812, "Ġpoly": 9813, "voice": 9814, "}\"": 9815, "Ġanimal": 9816, "Av": 9817, "ĠLocation": 9818, "Ġnative": 9819, "][\"": 9820, "<double": 9821, "Ġmais": 9822, ",int": 9823, "Ġprepar": 9824, "Ġinterval": 9825, "plementation": 9826, "_ERR": 9827, "Ġbug": 9828, ">\"": 9829, "stat": 9830, "Ġ},čĊ": 9831, "<span": 9832, "Ġfaith": 9833, "Ġrom": 9834, "prev": 9835, "ĠElect": 9836, "Find": 9837, "Ġgod": 9838, "otor": 9839, "//----------------------------------------------------------------": 9840, "original": 9841, "Cpp": 9842, "ĠSenate": 9843, "Ġpositions": 9844, "Ġweapons": 9845, "Ġcoff": 9846, "Ġpurposes": 9847, "pol": 9848, "Ġimpress": 9849, "Ġanimals": 9850, ".Entity": 9851, "(np": 9852, "Ġmurder": 9853, "Ġ``": 9854, "flag": 9855, "Ġsolutions": 9856, "ĠActive": 9857, "Ġbright": 9858, ".date": 9859, "Ġsitu": 9860, "ï¼Ī": 9861, ".ID": 9862, "Ġsie": 9863, "),čĊ": 9864, "akt": 9865, "Space": 9866, ".dat": 9867, ".indexOf": 9868, "han": 9869, "azine": 9870, "ĠZe": 9871, "Ġcrash": 9872, "(/": 9873, ">=": 9874, "iva": 9875, ".AutoSize": 9876, "ĠLat": 9877, "_ext": 9878, "Initialize": 9879, ".register": 9880, "OPY": 9881, "Ġreverse": 9882, "_dis": 9883, "'][": 9884, "Ġprompt": 9885, "onto": 9886, "ĠJournal": 9887, "router": 9888, "Ġmysqli": 9889, "#else": 9890, ")\"": 9891, "-xs": 9892, "lets": 9893, "phan": 9894, ".LE": 9895, "Will": 9896, "Ġafford": 9897, "Ġskill": 9898, "-toggle": 9899, "NC": 9900, "Bind": 9901, "TS": 9902, "Just": 9903, "iteral": 9904, "YP": 9905, "ĉunsigned": 9906, "Ġwind": 9907, ")):Ċ": 9908, "Ġwarning": 9909, "ĠWater": 9910, "Ġdraft": 9911, "Ġcm": 9912, "Ġsam": 9913, "Ġholding": 9914, "zip": 9915, "ĠScience": 9916, "Ġsupposed": 9917, "Gen": 9918, "Ġdiet": 9919, "<h": 9920, "ĠPass": 9921, "vi": 9922, "Ġhusband": 9923, "ï¿½ï¿½": 9924, "note": 9925, "ĠAbout": 9926, "ĠInstitute": 9927, "Ġclimate": 9928, ".Format": 9929, "Ġnut": 9930, "ested": 9931, "Ġapparent": 9932, "Ġholds": 9933, "fi": 9934, "news": 9935, "CM": 9936, "video": 9937, "':'": 9938, "DITION": 9939, "ping": 9940, "Ġsenior": 9941, "wa": 9942, "-->Ċ": 9943, "_default": 9944, "ĠDatabase": 9945, "rep": 9946, "ESS": 9947, "nergy": 9948, ".Find": 9949, "_mask": 9950, "Ġrise": 9951, "Ġkernel": 9952, "::$": 9953, ".Q": 9954, "Ġoffering": 9955, "decl": 9956, "ĠCS": 9957, "Ġlisted": 9958, "Ġmostly": 9959, "enger": 9960, "Ġblocks": 9961, "olo": 9962, "Ġgoverning": 9963, "\\F": 9964, "Ġconcent": 9965, ".getText": 9966, "Ġmb": 9967, "Ġoccurred": 9968, "Ġchanging": 9969, "Scene": 9970, "_CODE": 9971, "Beh": 9972, "\"The": 9973, "Ġtile": 9974, "ĠAssociation": 9975, "ĉP": 9976, "alty": 9977, "_ad": 9978, "odies": 9979, "iated": 9980, "Ġprepared": 9981, "possible": 9982, "Ġmort": 9983, "TEST": 9984, "Ġignore": 9985, "Ġcalc": 9986, "Ġrs": 9987, "ĠassertEquals": 9988, "Ġsz": 9989, "ĠTHIS": 9990, ".\"Ċ": 9991, "Ġcanvas": 9992, "java": 9993, "Ġdut": 9994, "VALID": 9995, ".sql": 9996, ".input": 9997, "Ġaux": 9998, "Sup": 9999, "Ġartist": 10000, "Vec": 10001, "_TIME": 10002, ".stringify": 10003, "etween": 10004, "ĠCategory": 10005, "Ġ[-": 10006, "ĠDevExpress": 10007, "ĠJul": 10008, "Ġring": 10009, ".ed": 10010, "YY": 10011, "Let": 10012, "TextField": 10013, "Ġflat": 10014, "_print": 10015, "ĠOTHER": 10016, "adian": 10017, "Ġchecked": 10018, "ele": 10019, "Align": 10020, "standing": 10021, "Ġ[],": 10022, "Ġlab": 10023, "ucky": 10024, "ĠChristmas": 10025, "(image": 10026, ".module": 10027, "Ġlots": 10028, "Ġslightly": 10029, "(final": 10030, "erge": 10031, "è¿": 10032, "ĠPolice": 10033, "ĠRight": 10034, "Ġaward": 10035, "ĠOS": 10036, "Ġ{}ĊĊ": 10037, "Ġptr": 10038, "oves": 10039, "icated": 10040, "Ġmanage": 10041, "oliday": 10042, "Amount": 10043, "oolStrip": 10044, "tbody": 10045, "Nav": 10046, "wrap": 10047, "BB": 10048, "Ġwatching": 10049, "arios": 10050, "Ġoptional": 10051, "_K": 10052, "ĠLicensed": 10053, ".Map": 10054, "Timer": 10055, "ĠAP": 10056, "ĠRev": 10057, "(o": 10058, ",c": 10059, "umin": 10060, "etailed": 10061, "ĠHy": 10062, "Ġblank": 10063, "agger": 10064, "ĠSelf": 10065, "()[": 10066, ".make": 10067, "earn": 10068, "channel": 10069, "<pre": 10070, "blem": 10071, "_password": 10072, "_sp": 10073, "icing": 10074, "ez": 10075, "Ġtheory": 10076, "ĠTer": 10077, ",n": 10078, "logo": 10079, "ĠHTTP": 10080, "()))": 10081, ".handle": 10082, ">;Ċ": 10083, "World": 10084, "Ġpython": 10085, "Ġlif": 10086, "Ġtrav": 10087, "Ġconven": 10088, "company": 10089, "ĠClub": 10090, "Ver": 10091, "Btn": 10092, "Ġzone": 10093, "products": 10094, "ĠEduc": 10095, "Ġverify": 10096, "ĠMil": 10097, "ono": 10098, "]);ĊĊ": 10099, "ENCE": 10100, "Ġpacket": 10101, "Ġcer": 10102, "Ġenumer": 10103, "Ġpars": 10104, "formed": 10105, "Ġoccup": 10106, "tre": 10107, "Ġexercise": 10108, "Day": 10109, "_sum": 10110, "Ġasking": 10111, "aption": 10112, "Ġorders": 10113, "Ġspending": 10114, "ĠERR": 10115, ".Dis": 10116, "ĠUtil": 10117, "âĢľI": 10118, "\\'": 10119, "?)": 10120, "/>Ċ": 10121, "Ġemot": 10122, "Ġinfluence": 10123, "ĠAfrica": 10124, "atters": 10125, ".session": 10126, "Ġchief": 10127, "ĉĉĉĉĉĉĉĉĉĉĉ": 10128, "Ġtom": 10129, "cluded": 10130, "serial": 10131, "_handler": 10132, ".Type": 10133, "aped": 10134, "Ġpolicies": 10135, "-ex": 10136, "-tr": 10137, "blank": 10138, "merce": 10139, "Ġcoverage": 10140, "Ġrc": 10141, "_matrix": 10142, "_box": 10143, "Ġcharges": 10144, "ĠBoston": 10145, "Pe": 10146, "Ġcircum": 10147, "Ġfilled": 10148, "Ġnorth": 10149, "ictureBox": 10150, "ĉres": 10151, "è®": 10152, "Ġtermin": 10153, "Ġ[âĢ¦": 10154, "IRECT": 10155, "Ġber": 10156, "Ġ\"../../": 10157, "retch": 10158, ".code": 10159, "_col": 10160, "ĠGovernment": 10161, "Ġargv": 10162, "ĠLord": 10163, "asi": 10164, "Exec": 10165, "ĉlet": 10166, "vertis": 10167, "Ġdiscussion": 10168, "enance": 10169, "outube": 10170, "typeof": 10171, "Ġserved": 10172, "ĠPut": 10173, "ĉx": 10174, "Ġsweet": 10175, "Before": 10176, "ategy": 10177, ".of": 10178, "ĠMaterial": 10179, "Sort": 10180, "ONT": 10181, "igital": 10182, "Why": 10183, "Ġsust": 10184, "Ġç": 10185, "abet": 10186, "Ġsegment": 10187, "Ġ[],Ċ": 10188, "ĠMuslim": 10189, "ĠfindViewById": 10190, "cut": 10191, "_TEXT": 10192, "ĠMary": 10193, "Ġloved": 10194, "Ġlie": 10195, "ĠJO": 10196, "Ġisset": 10197, "month": 10198, "Ġprime": 10199, "ti": 10200, "ĠCarol": 10201, "Use": 10202, "ĠPop": 10203, "ĠSave": 10204, "Interval": 10205, "execute": 10206, "dy": 10207, "ĠIran": 10208, "_cont": 10209, "ĉT": 10210, "Ġphase": 10211, "checkbox": 10212, "week": 10213, "Ġhide": 10214, "Ġtil": 10215, "Ġju": 10216, "Custom": 10217, "burg": 10218, "/M": 10219, "TON": 10220, "Ġquant": 10221, "Ġrub": 10222, "ixels": 10223, "Ġinstalled": 10224, "Ġdump": 10225, "Ġproperly": 10226, "(List": 10227, "Ġdecide": 10228, "apply": 10229, "Has": 10230, "Ġkeeping": 10231, "Ġcitizens": 10232, "Ġjoint": 10233, "pool": 10234, "Socket": 10235, "_op": 10236, "Ġweapon": 10237, "gnore": 10238, "ĠExec": 10239, "otten": 10240, "ĠMS": 10241, "Ġ(-": 10242, "ĠReview": 10243, "Ġexamples": 10244, "Ġtight": 10245, "!(": 10246, "DP": 10247, "ĠMessageBox": 10248, "Ġphotograph": 10249, "URI": 10250, "Ã©t": 10251, "low": 10252, "ĠGrand": 10253, ".persistence": 10254, "Ġmaintain": 10255, "Ġnums": 10256, "Ġzip": 10257, "ials": 10258, "ĠGets": 10259, "peg": 10260, "ĠBuffer": 10261, "~~~~": 10262, "rastructure": 10263, "ĠPL": 10264, "uen": 10265, "obby": 10266, "sizeof": 10267, "Ġpic": 10268, "Ġseed": 10269, "Ġexperienced": 10270, "Ġodd": 10271, "Ġkick": 10272, "Ġprocedure": 10273, "avigator": 10274, "-on": 10275, ",j": 10276, "ĠAlthough": 10277, "ĠuserId": 10278, "accept": 10279, "Blue": 10280, "IColor": 10281, "layer": 10282, "available": 10283, "Ġends": 10284, ".table": 10285, "Ġdataset": 10286, "bus": 10287, "Ġexplain": 10288, "(pro": 10289, "ĠCommittee": 10290, "Ġnoted": 10291, "]:Ċ": 10292, "Dim": 10293, "stdio": 10294, ".\",Ċ": 10295, "_source": 10296, "ĠWeek": 10297, "ĠEdge": 10298, "Ġoperating": 10299, "Ġeste": 10300, "ipl": 10301, "agination": 10302, "Ġproceed": 10303, "Ġanimation": 10304, ".Models": 10305, "ĠWatch": 10306, "iat": 10307, "Ġoppon": 10308, "/A": 10309, "Report": 10310, "Ġsounds": 10311, "_buf": 10312, "IELD": 10313, "Ġbund": 10314, "ĉget": 10315, ".pr": 10316, "(tmp": 10317, "Ġkid": 10318, ">ĊĊĊ": 10319, "Ġyang": 10320, "NotFound": 10321, "math": 10322, "@gmail": 10323, "ĠLIMIT": 10324, "redients": 10325, "Ġvent": 10326, "avigate": 10327, "Look": 10328, "Ġreligious": 10329, "Ġrand": 10330, "rio": 10331, "(GL": 10332, "_ip": 10333, "uan": 10334, "iciency": 10335, "ĠChange": 10336, ">čĊčĊ": 10337, "ĠEntity": 10338, "Ġrencontre": 10339, "ĠRet": 10340, "plan": 10341, "Ã©n": 10342, "BOOL": 10343, "uries": 10344, "train": 10345, "Definition": 10346, "============": 10347, "zz": 10348, "Animation": 10349, "ĠOK": 10350, "_menu": 10351, ".bl": 10352, "_score": 10353, "Ġacad": 10354, "(System": 10355, "Ġrefresh": 10356, "'=>$": 10357, ".Graphics": 10358, "amento": 10359, "pid": 10360, "tc": 10361, "Ġtips": 10362, "Ġhomes": 10363, "Ġfuel": 10364, "âĸ": 10365, "_helper": 10366, "ĠĠčĊ": 10367, "ĠRoom": 10368, ".Close": 10369, "_attr": 10370, "ĠMount": 10371, "ĠEv": 10372, "arser": 10373, "_top": 10374, "eah": 10375, "ĠDelete": 10376, "ãĢį": 10377, "uke": 10378, "Ġusage": 10379, "aria": 10380, "_dev": 10381, "Ġtexture": 10382, "Ġconversation": 10383, "eper": 10384, "Bean": 10385, "done": 10386, "nonatomic": 10387, "ĠSecond": 10388, "Ġshooting": 10389, "_pre": 10390, "Components": 10391, "Ġ]ĊĊ": 10392, "__,": 10393, "stitution": 10394, ".Char": 10395, ">();ĊĊ": 10396, "Ġpresented": 10397, "Ġwa": 10398, "oker": 10399, "-ĊĊ": 10400, "iner": 10401, "Ġbecoming": 10402, "Ġincident": 10403, "Att": 10404, "Ġrevealed": 10405, "forc": 10406, "Ġboot": 10407, ".page": 10408, "Enumerator": 10409, "_->": 10410, "Photo": 10411, "Ġspring": 10412, ".\",": 10413, "ĠDictionary": 10414, "BJECT": 10415, "Ġlocations": 10416, "Ġsamples": 10417, "InputStream": 10418, "ĠBrown": 10419, "Ġstats": 10420, "quality": 10421, "-dis": 10422, "Ġhelping": 10423, "Ġped": 10424, "(se": 10425, "ĠWho": 10426, "alian": 10427, "internal": 10428, "Ġft": 10429, ">().": 10430, "->{": 10431, "Ġmine": 10432, "Ġsector": 10433, "Ġgro": 10434, "Ġopportunities": 10435, "ĠÃ¼": 10436, "Ġmp": 10437, "Ġalleged": 10438, "Ġdoubt": 10439, "Mouse": 10440, "About": 10441, "_part": 10442, "Ġchair": 10443, "Ġstopped": 10444, "loop": 10445, "entities": 10446, "Ġapps": 10447, "ansion": 10448, "Ġmental": 10449, "ĠĠĠĠĠĠĠĠĠĠĠĠĠĠĠĠĠĠĠĠĠĠĠĠĠĠĠĠĠĠĠĠĠĠĠĠĠĠĠĠĠ": 10450, "FR": 10451, "Ġdefend": 10452, "care": 10453, "Ġideal": 10454, "/api": 10455, "urface": 10456, "Ġele": 10457, "ulator": 10458, "ĠRights": 10459, "anguages": 10460, "Ġfunds": 10461, "Ġadapt": 10462, "Attributes": 10463, "Ġdeploy": 10464, "opts": 10465, "Ġvalidation": 10466, "Ġconcerns": 10467, "uce": 10468, ".num": 10469, "ulture": 10470, "ila": 10471, "Ġcup": 10472, "Ġpure": 10473, ".Fore": 10474, "ĠHashMap": 10475, ".valueOf": 10476, "asm": 10477, "MO": 10478, "Ġcs": 10479, "Ġstores": 10480, "Ġ************************************************************************": 10481, "Ġcommunication": 10482, "mem": 10483, ".EventHandler": 10484, ".Status": 10485, "_right": 10486, ".setOn": 10487, "Sheet": 10488, "Ġidentify": 10489, "enerated": 10490, "ordered": 10491, "Ġ\"[": 10492, "Ġswe": 10493, "Condition": 10494, "ĠAccording": 10495, "Ġprepare": 10496, "Ġrob": 10497, "Pool": 10498, "Ġsport": 10499, "rv": 10500, "ĠRouter": 10501, "Ġalternative": 10502, "([]": 10503, "ĠChicago": 10504, "ipher": 10505, "ische": 10506, "ĠDirector": 10507, "kl": 10508, "ĠWil": 10509, "keys": 10510, "Ġmysql": 10511, "Ġwelcome": 10512, "king": 10513, "ĠManager": 10514, "Ġcaught": 10515, ")}Ċ": 10516, "Score": 10517, "_PR": 10518, "Ġsurvey": 10519, "hab": 10520, "Headers": 10521, "ADER": 10522, "Ġdecor": 10523, "Ġturns": 10524, "Ġradius": 10525, "errupt": 10526, "Cor": 10527, "Ġmel": 10528, "Ġintr": 10529, "(q": 10530, "ĠAC": 10531, "amos": 10532, "MAX": 10533, "ĠGrid": 10534, "ĠJesus": 10535, "ĠĠĠĠĠĠĠĠĠĠĠĠĠĠĠĠĠĠĠĠĠĠĠĠĠĠĠĠĠĠĠĠĠĠĠĠ": 10536, ".DE": 10537, "Ġts": 10538, "Ġlinked": 10539, "free": 10540, "ĠQt": 10541, "Ġ/**čĊ": 10542, "Ġfaster": 10543, "ctr": 10544, "_J": 10545, "DT": 10546, ".Check": 10547, "Ġcombination": 10548, "Ġintended": 10549, "-the": 10550, "-type": 10551, "ectors": 10552, "ami": 10553, "uting": 10554, "Ġuma": 10555, "XML": 10556, "UCT": 10557, "Ap": 10558, "ĠRandom": 10559, "Ġran": 10560, ".sort": 10561, "Ġsorted": 10562, ".Un": 10563, "_PER": 10564, "itory": 10565, "Ġpriority": 10566, "ĠGal": 10567, "ĠOld": 10568, "hot": 10569, "ĠDisplay": 10570, "(sub": 10571, "_TH": 10572, "_Y": 10573, "ĠCare": 10574, "loading": 10575, "Kind": 10576, "_handle": 10577, ",,": 10578, "rase": 10579, "_replace": 10580, ".addEventListener": 10581, "ĠRT": 10582, "Ġentered": 10583, "gers": 10584, "Ġich": 10585, "(start": 10586, "/app": 10587, "Ġbrother": 10588, "Memory": 10589, "Outlet": 10590, "Ġutf": 10591, "prec": 10592, "Ġnavigation": 10593, "ORK": 10594, "Ġdst": 10595, "Detail": 10596, "Ġaudience": 10597, "Ġdur": 10598, "Ġcluster": 10599, "unched": 10600, "Ġ],": 10601, "Ġcomfortable": 10602, ".values": 10603, "ĠTotal": 10604, "Ġsnap": 10605, "Ġstandards": 10606, "Ġperformed": 10607, "hand": 10608, "(\"@": 10609, "åŃ": 10610, "Ġphil": 10611, "ibr": 10612, "trim": 10613, "Ġforget": 10614, "Ġdoctor": 10615, ".TextBox": 10616, "icons": 10617, ",s": 10618, "ĠOp": 10619, "Sm": 10620, "Stop": 10621, "ĉList": 10622, "ĉu": 10623, "Comment": 10624, "_VERSION": 10625, ".Xtra": 10626, "Person": 10627, "rb": 10628, "LOB": 10629, "ĠĠĠĠĠĠĠĠĠĠĠĠĠĠĠĠĠĠĠĠĊ": 10630, "ĠCentral": 10631, "ICK": 10632, "raq": 10633, "Ġputting": 10634, "Ġmd": 10635, "ĠLove": 10636, "Program": 10637, "Border": 10638, "oor": 10639, "Ġallowing": 10640, "after": 10641, "Ġentries": 10642, "ĠMaybe": 10643, "]).": 10644, "ĠShort": 10645, ")\\": 10646, ".now": 10647, "friend": 10648, "Ġprefer": 10649, "ĠGPIO": 10650, "osis": 10651, "ĠGameObject": 10652, "Ġskip": 10653, "Ġcompetition": 10654, "_match": 10655, "lications": 10656, "_CONT": 10657, ".groupBox": 10658, "Ġals": 10659, "\"We": 10660, "_eq": 10661, "lan": 10662, "_search": 10663, "ĠMusic": 10664, "asis": 10665, "Ġbind": 10666, "ĠIsland": 10667, "rum": 10668, "(E": 10669, "Ġseat": 10670, "Video": 10671, "Ġack": 10672, "reek": 10673, "={()": 10674, "Ġrating": 10675, "Ġrestaurant": 10676, "DEX": 10677, "(buf": 10678, "pping": 10679, "uality": 10680, "Ġleague": 10681, "Ġfocused": 10682, "apon": 10683, "$data": 10684, "CLUD": 10685, "CLUDING": 10686, "Ġabsolute": 10687, "(query": 10688, "Ġtells": 10689, "Ang": 10690, "Ġcommunities": 10691, "Ġhonest": 10692, "oking": 10693, "Ġapart": 10694, "arity": 10695, "/$": 10696, "_module": 10697, "ĠEnc": 10698, ".an": 10699, ".Config": 10700, "Cre": 10701, "Ġshock": 10702, "ĠArab": 10703, "IENT": 10704, "/re": 10705, "Ġretrie": 10706, "ycler": 10707, "isa": 10708, "ĠOrgan": 10709, ".graph": 10710, "Ġí": 10711, "ĠBAS": 10712, "Enum": 10713, "Ġpossibly": 10714, "ĠJapanese": 10715, "Ġcraft": 10716, "ĠPlace": 10717, "Ġtalent": 10718, "Ġfunding": 10719, "Ġconfirmed": 10720, "Ġcycle": 10721, "/x": 10722, "GE": 10723, "Ġhearing": 10724, "Ġplants": 10725, "Ġmouth": 10726, "pages": 10727, "oria": 10728, "ĠRemove": 10729, "_total": 10730, "Ġod": 10731, "ollapse": 10732, "door": 10733, "Ġbought": 10734, "Ġaddr": 10735, "ARCH": 10736, "_dim": 10737, "dden": 10738, "Ġdecades": 10739, "REQUEST": 10740, "Ġversions": 10741, "fire": 10742, "Ġmoves": 10743, "fb": 10744, "Ġcoffee": 10745, ".connect": 10746, "ĠRow": 10747, "Ġschema": 10748, "Scope": 10749, "-Type": 10750, "Ġfighting": 10751, "Ġretail": 10752, "Ġmodified": 10753, "TF": 10754, "Files": 10755, "nie": 10756, "_command": 10757, "stone": 10758, "_thread": 10759, "Ġbond": 10760, "ĠDevelopment": 10761, "Ġpt": 10762, "FORM": 10763, "plet": 10764, "Ġidentified": 10765, "cpp": 10766, "Ġcoding": 10767, "oked": 10768, "ĠMaster": 10769, "IDTH": 10770, "Ġresidents": 10771, "redit": 10772, "ĠPhoto": 10773, "=-": 10774, "unte": 10775, "ateur": 10776, "_STATE": 10777, "ĠSing": 10778, "Ġsheet": 10779, ".val": 10780, "orse": 10781, "Ġhers": 10782, "Ġdetermined": 10783, "Common": 10784, "Ġwed": 10785, "_queue": 10786, "PH": 10787, "ĠAtl": 10788, "cred": 10789, "/LICENSE": 10790, "Ġmes": 10791, "Ġadvanced": 10792, ".java": 10793, ".Sh": 10794, "Go": 10795, "kill": 10796, "fp": 10797, "_settings": 10798, "Ġpal": 10799, "Ġtruck": 10800, "Ġcombined": 10801, "Ġ\"${": 10802, "ĠCorpor": 10803, "Ġjoined": 10804, "ĠJose": 10805, "ĠCup": 10806, "uns": 10807, "estival": 10808, "levision": 10809, "Ġbroken": 10810, "Ġmarriage": 10811, "ĠWestern": 10812, "Ġrepresents": 10813, "ĠTitle": 10814, "Ġss": 10815, ".Ass": 10816, "ongoose": 10817, "iento": 10818, "<>();Ċ": 10819, "Ġabsolutely": 10820, "Ġsmooth": 10821, "TERN": 10822, "ĠUnless": 10823, "Word": 10824, "Ġmerge": 10825, "igan": 10826, "ĠVol": 10827, "Ġnn": 10828, ".getId": 10829, "Ġsexy": 10830, "Ġseeking": 10831, "Single": 10832, ".this": 10833, "Ġkom": 10834, "bound": 10835, ";\"": 10836, "ĠfontSize": 10837, "_df": 10838, "Ġinjury": 10839, "(H": 10840, "Ġissued": 10841, "_END": 10842, ":self": 10843, "Ġpatch": 10844, "Ġleaves": 10845, "Ġadopt": 10846, "FileName": 10847, "ãĢĲ": 10848, "Ġexecutive": 10849, "ĠByte": 10850, "]))Ċ": 10851, "Ġnu": 10852, "outing": 10853, "cluding": 10854, "-R": 10855, ".options": 10856, "Ġsubstant": 10857, "avax": 10858, "ĠBUT": 10859, "Ġtechnical": 10860, "Ġtwice": 10861, "ĠmÃ¡s": 10862, "Ġunivers": 10863, "yr": 10864, "Ġdrag": 10865, "ĠDC": 10866, "Ġsed": 10867, "Ġbot": 10868, "ĠPal": 10869, "ĠHall": 10870, "forcement": 10871, "Ġauch": 10872, ".mod": 10873, "notation": 10874, "_files": 10875, ".line": 10876, "_flag": 10877, "[name": 10878, "Ġresolution": 10879, "Ġbott": 10880, "(\"[": 10881, "ende": 10882, "(arr": 10883, "Free": 10884, "(@\"": 10885, "ĠDistrict": 10886, "PEC": 10887, ":-": 10888, "Picker": 10889, "ĠJo": 10890, "ĠĠĠĠĠĊ": 10891, "ĠRiver": 10892, "_rows": 10893, "Ġhelpful": 10894, "Ġmassive": 10895, "---Ċ": 10896, "Ġmeasures": 10897, "ĠRuntime": 10898, "Ġworry": 10899, "ĠSpec": 10900, "ĉD": 10901, "ãĢĳ": 10902, "Ġ){Ċ": 10903, "Ġworse": 10904, "(filename": 10905, "Ġlay": 10906, "Ġmagic": 10907, "ĠTheir": 10908, "oul": 10909, "stroy": 10910, "ĠWhere": 10911, "Ġsudden": 10912, "Ġdefe": 10913, "Ġbinding": 10914, "Ġflight": 10915, "ĠOnInit": 10916, "ĠWomen": 10917, "ĠPolicy": 10918, "Ġdrugs": 10919, "ishing": 10920, "('../": 10921, "ĠMel": 10922, "peat": 10923, "tor": 10924, "Ġproposed": 10925, "Ġstated": 10926, "_RES": 10927, "Ġeast": 10928, "ĠCONDITION": 10929, "_desc": 10930, "Ġwinning": 10931, "folio": 10932, "Mapper": 10933, "ĠPan": 10934, "ĠAnge": 10935, ".servlet": 10936, "Ġcopies": 10937, "LM": 10938, "Ġvm": 10939, "åį": 10940, "Ġdictionary": 10941, "Seg": 10942, "elines": 10943, "ĠSend": 10944, "Ġiron": 10945, "ĠFort": 10946, ".domain": 10947, "Ġdebate": 10948, "NotNull": 10949, "eq": 10950, "acher": 10951, "lf": 10952, "ĉfmt": 10953, "Ġlawy": 10954, "ÄŁ": 10955, "ĠMen": 10956, "Ġtrim": 10957, "(NULL": 10958, "Ġ!!": 10959, "Ġpad": 10960, "Ġfollows": 10961, "\"][\"": 10962, "requ": 10963, "ĠEp": 10964, ".github": 10965, "(img": 10966, "eto": 10967, "('\\": 10968, "Services": 10969, "umbnail": 10970, "_main": 10971, "pleted": 10972, "fortunately": 10973, "Ġwindows": 10974, "Ġplane": 10975, "ĠConnection": 10976, ".local": 10977, "uard": 10978, "}\\": 10979, "==\"": 10980, "andon": 10981, "ĠRoy": 10982, "west": 10983, "iginal": 10984, "emies": 10985, "itz": 10986, "'):Ċ": 10987, "ĠPeter": 10988, "Ġtough": 10989, "Ġreduced": 10990, "Ġcalculate": 10991, "Ġrapid": 10992, "customer": 10993, "Ġefficient": 10994, "Ġmedium": 10995, "Ġfell": 10996, ".ref": 10997, "ĠCas": 10998, "Ġfeedback": 10999, "Speed": 11000, "(output": 11001, "aje": 11002, "Ġcategories": 11003, "Ġfee": 11004, "};": 11005, "Ġdeleted": 11006, "reh": 11007, "Ġproof": 11008, "Desc": 11009, "Build": 11010, "Ġsides": 11011, ".ArrayList": 11012, "-%": 11013, "ĠĠĠĠĠĠĠĠĠĠĠĠĠĠĠĠĠĠĠĠĠĠĠĠĠĠĠĠĠĠĠĠĠĠĠĠĠĠ": 11014, ".match": 11015, "Ġfeels": 11016, "Ġachieve": 11017, "Ġclim": 11018, "_ON": 11019, "ĠCD": 11020, "Ġteacher": 11021, "_current": 11022, "bn": 11023, "_PL": 11024, "isting": 11025, "Enable": 11026, "GEN": 11027, "Ġtv": 11028, "Ġsock": 11029, "Ġplays": 11030, "Ġdiscount": 11031, "ĠKE": 11032, "ĠDebug": 11033, "Fore": 11034, "ĠIraq": 11035, "Ġappearance": 11036, "Mon": 11037, "Ġstyled": 11038, "ĠHuman": 11039, "iot": 11040, "ĠHistory": 11041, "Ġsac": 11042, "ĠCollection": 11043, "Ġrecommended": 11044, ".Selected": 11045, "Ġorganizations": 11046, "Ġdiscovered": 11047, "cohol": 11048, "adas": 11049, "ĠThomas": 11050, "May": 11051, "Ġconserv": 11052, "Ġdomin": 11053, "ĠFollow": 11054, "ĠSection": 11055, "ĠThanks": 11056, "Username": 11057, "Ġrecipe": 11058, "Ġwonderful": 11059, ".sleep": 11060, "_if": 11061, "ĉĊĉĊ": 11062, "orno": 11063, "Ġru": 11064, "_target": 11065, ".\"\"": 11066, "à¦": 11067, "EventArgs": 11068, "Ġinputs": 11069, "Ġfif": 11070, "Ġvision": 11071, "cy": 11072, "ĠSeries": 11073, ")(((": 11074, "Ġtrading": 11075, "Ġmarker": 11076, "Begin": 11077, "Ġtypically": 11078, "Ġcauses": 11079, "dropdown": 11080, "_DEBUG": 11081, "Ġdetect": 11082, "country": 11083, "!\");Ċ": 11084, "ĉR": 11085, "appy": 11086, "Ġcref": 11087, "('<": 11088, "\"=>": 11089, "ĠLE": 11090, "reader": 11091, "Ġadministr": 11092, "Ãµ": 11093, "ucket": 11094, "Ġfashion": 11095, ".char": 11096, "izar": 11097, "Ġdisable": 11098, "Ġsuc": 11099, "ĠLive": 11100, "issue": 11101, "Ġmetadata": 11102, "flags": 11103, "ĠðŁ": 11104, "Ġcommitted": 11105, "Ġva": 11106, "Ġrough": 11107, "Ġ'''Ċ": 11108, "Ġhighlight": 11109, "_vars": 11110, "VO": 11111, "Ġencoding": 11112, "-Z": 11113, "_sign": 11114, "$(\"#": 11115, "Ġrain": 11116, "reatest": 11117, "ĠEND": 11118, "Selection": 11119, "Ġcandidates": 11120, "Ġsav": 11121, ".Empty": 11122, "Ġdecisions": 11123, "Ġcollabor": 11124, "ridge": 11125, "feed": 11126, "ression": 11127, "Ġpersons": 11128, "VM": 11129, "ega": 11130, "_BIT": 11131, "According": 11132, "acked": 11133, "Ġdollars": 11134, "_loss": 11135, "ĠCost": 11136, "}\"Ċ": 11137, "Notification": 11138, "Ġprostit": 11139, "Ġauthority": 11140, ".rec": 11141, "Ġspokes": 11142, "ĠToday": 11143, "istant": 11144, "ĠHead": 11145, "âĢĿ.": 11146, "ertainment": 11147, "cean": 11148, "culate": 11149, "Ġven": 11150, "However": 11151, "_arr": 11152, "Ġtokens": 11153, "Graph": 11154, "ĠJud": 11155, "ĠVirgin": 11156, "ĠSerial": 11157, "unning": 11158, "Mutable": 11159, "agers": 11160, ".csv": 11161, "Ġdeveloping": 11162, "Ġinstructions": 11163, "Ġpromise": 11164, "Ġrequested": 11165, "_encode": 11166, "/\"": 11167, "ĠIcon": 11168, "uilt": 11169, "-day": 11170, "Ġintelligence": 11171, ".IS": 11172, "ĠObservable": 11173, "ĠHard": 11174, "Bool": 11175, "idential": 11176, ".Anchor": 11177, "Ġselling": 11178, "CI": 11179, "AGES": 11180, "tle": 11181, "bur": 11182, "UFFER": 11183, "RY": 11184, "Ġbigger": 11185, "Ġrat": 11186, "Ġfamous": 11187, "Ġtypename": 11188, "Ġexplained": 11189, "}}Ċ": 11190, "Ġnuclear": 11191, "-N": 11192, "Ġcrisis": 11193, "ĠEnter": 11194, "Ġanswers": 11195, "/${": 11196, "/pl": 11197, "Ġsequ": 11198, "_next": 11199, "mask": 11200, "Ġstanding": 11201, "Ġplenty": 11202, "ĠCross": 11203, "ĉret": 11204, "dro": 11205, "ĠCast": 11206, "=true": 11207, "ĠChris": 11208, "icio": 11209, "ĠMike": 11210, "Decimal": 11211, "addComponent": 11212, "Len": 11213, "Ġcock": 11214, "Ġ#{": 11215, "URN": 11216, "<tr": 11217, "Ġauthorities": 11218, "Resources": 11219, "-H": 11220, "Bottom": 11221, "_qu": 11222, "puter": 11223, "esterday": 11224, "Dispatch": 11225, "since": 11226, "Ġfamiliar": 11227, ",i": 11228, "VC": 11229, "Ġment": 11230, ",C": 11231, "Ġfreedom": 11232, "Ġroutes": 11233, "ĠBuy": 11234, "Ġcommands": 11235, "Ġmesh": 11236, "/C": 11237, "ĠSettings": 11238, "-style": 11239, "Ġwitness": 11240, "Ġcle": 11241, "Ġunion": 11242, "efault": 11243, "aret": 11244, "Ġthoughts": 11245, "Ġ----": 11246, "_process": 11247, "_us": 11248, "ingly": 11249, "UES": 11250, "Touch": 11251, "_open": 11252, "ĠVec": 11253, "Ġreward": 11254, ".Click": 11255, "/:": 11256, "Ġnie": 11257, "Changes": 11258, "Month": 11259, "ï¼Ł": 11260, "Ġexecution": 11261, "Ġbeach": 11262, "(Integer": 11263, "ĉa": 11264, "/'": 11265, ".FontStyle": 11266, "Ġabort": 11267, "ĠSingle": 11268, "(isset": 11269, "Ġdp": 11270, "Ġ}}</": 11271, "ĠMa": 11272, ".Rows": 11273, "ĠPet": 11274, "%)": 11275, "rand": 11276, "éĢ": 11277, "Rule": 11278, "Ġhel": 11279, "RITE": 11280, "Ġquiet": 11281, "Ġratio": 11282, "ĠCONDITIONS": 11283, "osoph": 11284, "ĠIL": 11285, "Ġadvent": 11286, "cap": 11287, ";</": 11288, "ĠUSB": 11289, "Driver": 11290, "Ġours": 11291, "ĠJohnson": 11292, ".K": 11293, "_delete": 11294, ".q": 11295, "ĉstr": 11296, "/common": 11297, "ĉstring": 11298, "ĠPDF": 11299, "acts": 11300, ".Action": 11301, "ĠQuery": 11302, ".response": 11303, "ĠGirl": 11304, "Ġprocesses": 11305, "<Integer": 11306, "imo": 11307, "Ġadds": 11308, "Ġentirely": 11309, "Ġwash": 11310, "/************************************************************************": 11311, "Ġanimated": 11312, "Ġprofit": 11313, "encing": 11314, "/S": 11315, "ĠSym": 11316, "Ġmanual": 11317, "Download": 11318, "Ġ(!$": 11319, "Ġmotion": 11320, "webpack": 11321, "-bottom": 11322, "Ġgratuit": 11323, "PG": 11324, "(:,": 11325, "Ġera": 11326, "Ġho": 11327, "ĠJim": 11328, "quir": 11329, "ĠBASIS": 11330, "Ã¡n": 11331, "DER": 11332, "Ġexpensive": 11333, "_co": 11334, "Bounds": 11335, "Well": 11336, "ĠDemocratic": 11337, "ĠâĨĴ": 11338, ".Rem": 11339, "_SY": 11340, "names": 11341, "ĠVi": 11342, "Ġisinstance": 11343, "\\\">": 11344, "Ġ*=": 11345, "ĠPS": 11346, "Ġdangerous": 11347, "[p": 11348, "OME": 11349, "Other": 11350, "ĠStringBuilder": 11351, "Points": 11352, "heading": 11353, "Ġcurrency": 11354, "Ġpercentage": 11355, "_API": 11356, "Ġclassic": 11357, "thead": 11358, "ĠMO": 11359, "FE": 11360, "Idx": 11361, "await": 11362, "ĠÃ¨": 11363, "Ġaccident": 11364, "Ġvariant": 11365, "Ġmyst": 11366, "ĠLand": 11367, "ĠBre": 11368, "Ġharm": 11369, "ĠAcc": 11370, "Ġcharged": 11371, "iones": 11372, "Visibility": 11373, "arry": 11374, "ĠLanguage": 11375, "Ġwalking": 11376, "\".ĊĊ": 11377, "ifer": 11378, "Ġleadership": 11379, ".From": 11380, "ynam": 11381, "Ġtimestamp": 11382, "ipt": 11383, "ĠHas": 11384, "REFER": 11385, "ĠIts": 11386, "Ġlistener": 11387, "UTE": 11388, "_description": 11389, "Ġexperiences": 11390, "Ġcreates": 11391, "RS": 11392, "cart": 11393, "black": 11394, "Ġchoices": 11395, "war": 11396, "Ġ'''": 11397, "Ġordered": 11398, "Ġevening": 11399, "Ġpil": 11400, "Ġtun": 11401, "ĠBad": 11402, "(app": 11403, "random": 11404, "Ġexplicit": 11405, "Ġarrived": 11406, "Ġfly": 11407, "Ġeconom": 11408, "-mail": 11409, "Ġlists": 11410, "Ġarchitect": 11411, "ĠPay": 11412, "Ġds": 11413, "ĠSol": 11414, "Ġvehicles": 11415, "Hz": 11416, "-com": 11417, "Ġking": 11418, "_equal": 11419, "ĠHelp": 11420, "Ġabuse": 11421, "--;Ċ": 11422, "Ġextr": 11423, "Ġchemical": 11424, "ä¿": 11425, "Ġorient": 11426, "Ġbreath": 11427, "ĠSpace": 11428, "(element": 11429, "wait": 11430, "DED": 11431, "igma": 11432, "Ġentr": 11433, "Ġsob": 11434, "-name": 11435, "Ġaffected": 11436, "ika": 11437, "Ġcoal": 11438, "_work": 11439, "Ġhundreds": 11440, "Ġpolitics": 11441, "subject": 11442, "Ġconsumer": 11443, "ANGE": 11444, "Ġrepeated": 11445, "Send": 11446, "Ġ#[": 11447, "Ġprotocol": 11448, "Ġleads": 11449, "useum": 11450, "Every": 11451, "Import": 11452, "(count": 11453, "Ġchallenges": 11454, "Ġnovel": 11455, "Ġdepart": 11456, "bits": 11457, ".Current": 11458, "Ġ`${": 11459, "oting": 11460, "(\\": 11461, "Ġcreative": 11462, "Ġbuff": 11463, "Ġintroduced": 11464, "usic": 11465, "modules": 11466, "Are": 11467, "-doc": 11468, "language": 11469, "_cache": 11470, "Ġtod": 11471, "?></": 11472, "omething": 11473, "Ġhun": 11474, "åº": 11475, "aters": 11476, "Intent": 11477, "Ġimplemented": 11478, "ĠCase": 11479, "Children": 11480, "Ġnotification": 11481, "Renderer": 11482, "Wrapper": 11483, "Objects": 11484, "tl": 11485, ".Contains": 11486, "Plugin": 11487, ".row": 11488, "Ġforg": 11489, "Ġpermit": 11490, "Ġtargets": 11491, "ĠIF": 11492, "Ġtip": 11493, "sex": 11494, "Ġsupports": 11495, "Ġfold": 11496, "photo": 11497, "},čĊ": 11498, "Ġgoogle": 11499, "$('#": 11500, "Ġsharing": 11501, "Ġgoods": 11502, "vs": 11503, "ĠDan": 11504, "Rate": 11505, "ĠMartin": 11506, "Ġmanner": 11507, "lie": 11508, ".The": 11509, "Internal": 11510, "ĠCONTR": 11511, "Mock": 11512, "RIGHT": 11513, "Ġ'{": 11514, "Ġcontrols": 11515, "Mat": 11516, "Ġmand": 11517, "Ġextended": 11518, "Ok": 11519, "Ġembed": 11520, "Ġplanet": 11521, "ĠNon": 11522, "-ch": 11523, ")\",": 11524, "epar": 11525, "Ġbelieved": 11526, "ĠEnvironment": 11527, "ĠFriend": 11528, "-res": 11529, "Ġhandling": 11530, "nic": 11531, "-level": 11532, "scri": 11533, "Xml": 11534, "BE": 11535, "ungen": 11536, "Ġalter": 11537, "[idx": 11538, "Pop": 11539, "cam": 11540, "Ġ(((": 11541, "Ġshipping": 11542, "Ġbattery": 11543, "iddleware": 11544, "MC": 11545, "Ġimpl": 11546, "otation": 11547, "ĠLab": 11548, "<form": 11549, "ĉname": 11550, "ĠGames": 11551, "ray": 11552, "Extra": 11553, "Two": 11554, "(player": 11555, "ĠLes": 11556, "Â°": 11557, "Ġcharset": 11558, "Ġjourney": 11559, "eting": 11560, "æĺ": 11561, "âĶ": 11562, "çĶ¨": 11563, "Ġdin": 11564, "Ġperman": 11565, "Ġsolve": 11566, "Ġlaunched": 11567, "Ġnine": 11568, "Ġsending": 11569, "Ġtelling": 11570, ".password": 11571, "ĠMatrix": 11572, "eric": 11573, "Ġgrab": 11574, ".u": 11575, "ĠLibrary": 11576, "Ġdebt": 11577, "INK": 11578, ".findViewById": 11579, "Ġfrequency": 11580, ".ad": 11581, "_TEST": 11582, "Ġnegot": 11583, "ĠAfrican": 11584, "sender": 11585, "Å¡": 11586, "Global": 11587, "Ġexperts": 11588, "++)čĊ": 11589, "Ġdepending": 11590, "gray": 11591, "Ġjudge": 11592, "Ġsentence": 11593, "losure": 11594, "Ac": 11595, "Ġtrace": 11596, "Edge": 11597, "Ġfriendly": 11598, "Ġconcerned": 11599, "blog": 11600, "Ġclaimed": 11601, "}'": 11602, "integer": 11603, "_tree": 11604, "ĉcontinue": 11605, "xi": 11606, "Ġaccepted": 11607, "_one": 11608, "ĠEducation": 11609, "ublished": 11610, "gon": 11611, "appoint": 11612, "outs": 11613, "Ġmining": 11614, "Ġsongs": 11615, "Ġherself": 11616, "Ġgranted": 11617, "Ġpassion": 11618, "ĠLake": 11619, "Ġloan": 11620, "uent": 11621, "chant": 11622, "Ġdetailed": 11623, "except": 11624, "_cmd": 11625, "ĠHE": 11626, "Related": 11627, "zt": 11628, "'},Ċ": 11629, "Ġspecifically": 11630, "Static": 11631, "Ġcarried": 11632, "ANS": 11633, "\\\":": 11634, "Created": 11635, "Ġcul": 11636, "]-": 11637, "_api": 11638, "FP": 11639, "Ġsitting": 11640, "Ġ\"\")": 11641, "ĉgoto": 11642, "ĠEqu": 11643, "Ġassault": 11644, "kins": 11645, "ancer": 11646, "ogen": 11647, "Ġvoters": 11648, "ĠProt": 11649, "Descriptor": 11650, ".Assert": 11651, "bsites": 11652, "oster": 11653, "-menu": 11654, "Ġarms": 11655, ".Client": 11656, ".background": 11657, "avity": 11658, "Ġvul": 11659, "_MASK": 11660, "Ġhousing": 11661, "Ġbear": 11662, "_iter": 11663, "pired": 11664, "Ġmarkets": 11665, "ĠStudent": 11666, "Ġticket": 11667, "Ġmillions": 11668, "flater": 11669, ")=": 11670, "Ġrecover": 11671, "ĠForce": 11672, "ĠBoth": 11673, "Ġvictim": 11674, "ĠDisc": 11675, "report": 11676, "Ġfourth": 11677, "ĠAssembly": 11678, "/user": 11679, "NullOr": 11680, "textarea": 11681, "Ġath": 11682, "Ġ([": 11683, "Ġchannels": 11684, "ĠJustice": 11685, "choice": 11686, "LOBAL": 11687, "exec": 11688, "emale": 11689, "Ġelem": 11690, "_le": 11691, "Ġresponsibility": 11692, "ĠTw": 11693, "ICATION": 11694, "Ġelseif": 11695, "Ġfo": 11696, "asts": 11697, "Ġtreated": 11698, "sen": 11699, "ĠVict": 11700, "sumer": 11701, "_BASE": 11702, "Ġast": 11703, ">{{": 11704, "ĠResource": 11705, "ĠStandard": 11706, "ĠPrem": 11707, "updated": 11708, "ivalent": 11709, "Ġassets": 11710, "_temp": 11711, "Ġinterests": 11712, "Ġhardware": 11713, "ĠRom": 11714, "ĠShare": 11715, "Ġ''Ċ": 11716, "Ġ*,": 11717, "ĠTake": 11718, "ĠImages": 11719, "_CHECK": 11720, "(typeof": 11721, "ĠJun": 11722, "\\<^": 11723, "Ġliqu": 11724, "Ġworst": 11725, "ymbols": 11726, "ĉĉĉĠĠĠ": 11727, "Ġdrivers": 11728, "ĠDocument": 11729, "eno": 11730, "ĠTechnology": 11731, "Ġapproved": 11732, "umps": 11733, "Ġsnow": 11734, "formance": 11735, "_ASSERT": 11736, "uits": 11737, "Ġdifferences": 11738, ".Visible": 11739, "ĉĉĉčĊ": 11740, "ĠPs": 11741, "_fetch": 11742, "Ġtodo": 11743, ".',Ċ": 11744, "Ġsel": 11745, "urers": 11746, "invalid": 11747, "Ġtweet": 11748, "VEL": 11749, "Ġresearchers": 11750, "Ġsprintf": 11751, "ĠRO": 11752, "Ġpel": 11753, ".Trans": 11754, "Ġillegal": 11755, "dialog": 11756, "smarty": 11757, "lg": 11758, "_MIN": 11759, "Ġhero": 11760, "final": 11761, "Ġpp": 11762, ".Le": 11763, "Ġci": 11764, "ĉRT": 11765, "Ġsuggested": 11766, "pdf": 11767, "aching": 11768, "ĠRo": 11769, "ĠProperties": 11770, "ĠSi": 11771, "Ġbuying": 11772, "Ġmu": 11773, "Ġlands": 11774, "ifiers": 11775, "ĠFILE": 11776, "ROUP": 11777, "Ġholder": 11778, "ĠSon": 11779, "Ġsympt": 11780, ".route": 11781, ")?": 11782, "Ġargc": 11783, "Ġfort": 11784, "Ġcasino": 11785, "_category": 11786, "Ġforum": 11787, "prefix": 11788, "apture": 11789, "Tube": 11790, "ems": 11791, "imize": 11792, "Ġnue": 11793, "aus": 11794, "course": 11795, "ATOR": 11796, "()),": 11797, "Advertis": 11798, "INGS": 11799, "Ġacknow": 11800, "ĠKorea": 11801, "pling": 11802, "Ġworker": 11803, "PLIED": 11804, "hal": 11805, "ĠRichard": 11806, "Elements": 11807, "ĉĉĉĠ": 11808, "star": 11809, "Ġrelationships": 11810, "Ġcheap": 11811, "ACH": 11812, "ĠXML": 11813, ",&": 11814, "ĠLouis": 11815, "Ġride": 11816, "_FAIL": 11817, "Ġchunk": 11818, "[s": 11819, "_OUT": 11820, "Ġchosen": 11821, "_[": 11822, "/(": 11823, "ĠJeff": 11824, "_sl": 11825, "priv": 11826, "ĠCanadian": 11827, "Ġunable": 11828, "_FLAG": 11829, "Ġnos": 11830, "high": 11831, "Ġlift": 11832, "fun": 11833, "(){": 11834, "elly": 11835, "yclerView": 11836, "_as": 11837, "_LIST": 11838, "Ġradi": 11839, ".getValue": 11840, "ĠAngeles": 11841, "ĠSpan": 11842, "_instance": 11843, "itors": 11844, "Ġmigration": 11845, "AK": 11846, "Oh": 11847, "Â®": 11848, ".selected": 11849, "ĠGT": 11850, "Ġadvance": 11851, "ĠStyle": 11852, ".DataGridView": 11853, "ection": 11854, "pio": 11855, "rog": 11856, "Ġshopping": 11857, "ĠRect": 11858, "Illuminate": 11859, "OU": 11860, "ĉarray": 11861, "Ġsubstantial": 11862, "Ġpregn": 11863, "Ġpromote": 11864, "IEW": 11865, ".Layout": 11866, "Ġsigns": 11867, "/.": 11868, "Ġletters": 11869, "Board": 11870, "ctrl": 11871, "\"\\": 11872, "ĠJones": 11873, "Ġvertex": 11874, "Ġja": 11875, "Ġaffili": 11876, "Ġwealth": 11877, "ĉdefault": 11878, "Ġsignificantly": 11879, "Ġec": 11880, "Ġxs": 11881, "actual": 11882, ".per": 11883, "_step": 11884, "anvas": 11885, "mac": 11886, "Ġtransl": 11887, "ĠĠĠĠĠĠĠĠĠĠĠĠĠĠĠĠĠĠĠĠĠĠĠĠĠĠĠĠĠĠĠĠĠĠĠĠĠĠĠĠĠĠĠĠĠĠĠĠĠĠĠĠĠĠĠĠĠĠĠ": 11888, "Iterator": 11889, "Ġoch": 11890, "agnostic": 11891, "ĠDuring": 11892, "ĠDEFAULT": 11893, "Ġtill": 11894, "Ġsignature": 11895, "Ġbird": 11896, "ĠOl": 11897, "ĠIr": 11898, "HS": 11899, "avatar": 11900, "ESSAGE": 11901, "Ġelev": 11902, "Ġmt": 11903, "ĠNav": 11904, "Ġrelax": 11905, "Ġplate": 11906, "ITEM": 11907, "(date": 11908, ".not": 11909, "Ġgrade": 11910, "Ġ}),Ċ": 11911, "?\"ĊĊ": 11912, "iences": 11913, "High": 11914, "ĠDIS": 11915, "disabled": 11916, "QUI": 11917, "Ġnoise": 11918, "aux": 11919, "ĠUP": 11920, "osa": 11921, "Ġvoc": 11922, "Ġ))": 11923, "ocom": 11924, "_OFF": 11925, "ĠDb": 11926, "Lock": 11927, ".eclipse": 11928, ",d": 11929, "ĠDraw": 11930, "Ġ\"(": 11931, "Ġvisited": 11932, "ĠâĪ": 11933, "Ġsucceed": 11934, "Ġimpossible": 11935, "aire": 11936, "ĠTurn": 11937, "Ġdish": 11938, "FG": 11939, "Ġsensor": 11940, "ANN": 11941, "aba": 11942, "Ġsurg": 11943, "]);čĊ": 11944, "Ġfp": 11945, "_an": 11946, "-J": 11947, "-G": 11948, "ĠJob": 11949, "Convert": 11950, "ĠKEY": 11951, "Ġauthors": 11952, "_server": 11953, "\\r": 11954, "Ġ-*-": 11955, "flex": 11956, "Ġsoc": 11957, "Ret": 11958, "Ġsalt": 11959, "ĠâĢ¦ĊĊ": 11960, "ĠClear": 11961, "(page": 11962, "-danger": 11963, "Ġrooms": 11964, "conv": 11965, "#{": 11966, ".op": 11967, "ĠArea": 11968, "_SC": 11969, "hen": 11970, "Ġbegins": 11971, "-y": 11972, "Ġexcited": 11973, "Ġignored": 11974, "Ġbonus": 11975, "student": 11976, "ĠMember": 11977, "Ġrelatively": 11978, "ĠLow": 11979, "ĠProdu": 11980, "ateway": 11981, "posure": 11982, "Ġthick": 11983, "aniel": 11984, "(view": 11985, "ĠCrush": 11986, "Extension": 11987, "Il": 11988, "eed": 11989, "LOC": 11990, ".im": 11991, ".Items": 11992, "Ġconflict": 11993, ".prevent": 11994, "ĠonCreate": 11995, "uv": 11996, "iser": 11997, "Ġwave": 11998, "Mar": 11999, "ĠCommunity": 12000, "iche": 12001, "ĠNothing": 12002, "[m": 12003, "ĠLee": 12004, "riends": 12005, "Ã¨re": 12006, "!!!": 12007, "anz": 12008, ".result": 12009, "ĠSK": 12010, "_PARAM": 12011, "Ġdemocr": 12012, "BackColor": 12013, ".exists": 12014, "\"It": 12015, "(options": 12016, "razy": 12017, "aser": 12018, "\\Database": 12019, "alendar": 12020, "_ass": 12021, ";}Ċ": 12022, "vertex": 12023, "inecraft": 12024, "Warning": 12025, "argo": 12026, "Ġactor": 12027, "ĠInstead": 12028, "ĠUsing": 12029, "Self": 12030, "@interface": 12031, "Ġspeaking": 12032, "ĠParis": 12033, "ĠLICENSE": 12034, ".node": 12035, "ĠFood": 12036, "EIF": 12037, "ĠBi": 12038, ".Start": 12039, "ĠIB": 12040, "Ġuniversity": 12041, "ĠHeader": 12042, ".product": 12043, "Copy": 12044, "etc": 12045, "rical": 12046, "Ġ>>>": 12047, "books": 12048, "Ġalgorithm": 12049, "Ġ'__": 12050, "(javax": 12051, "Ġnumerous": 12052, "Share": 12053, "Have": 12054, "Ġrecru": 12055, "Ġprove": 12056, ".substring": 12057, "health": 12058, "Ġdecimal": 12059, "Ġcommission": 12060, "scription": 12061, "xC": 12062, "Ġsummary": 12063, "atted": 12064, "Ġcloser": 12065, "finished": 12066, "()){Ċ": 12067, "ĠWood": 12068, "_fields": 12069, "ku": 12070, "_items": 12071, "Flag": 12072, "Ġconfidence": 12073, "ĠFederal": 12074, "dux": 12075, "Ġcompat": 12076, "Ġvertical": 12077, "Ã¨s": 12078, ";\">Ċ": 12079, "_manager": 12080, "()))Ċ": 12081, "IDE": 12082, ":\",": 12083, "__Ċ": 12084, "ĠWay": 12085, "Temp": 12086, "ĠSTR": 12087, "ritten": 12088, "Sync": 12089, "ĠAV": 12090, "ĠCEO": 12091, "ĠGuid": 12092, "Ġenvironmental": 12093, "Ġcorresponding": 12094, "ĉconsole": 12095, "Ġjustice": 12096, "ĠJS": 12097, "Ġlived": 12098, "gar": 12099, "ĠGraph": 12100, "ĠStat": 12101, "ĠiPhone": 12102, ".al": 12103, "ĠHD": 12104, "Ġoccur": 12105, "Ġthreshold": 12106, "Ġonclick": 12107, "REG": 12108, ".GraphicsUnit": 12109, "Meta": 12110, "Å¾": 12111, "Ġcum": 12112, ".gnu": 12113, "Ã«": 12114, "Ġobtained": 12115, "Ġcomplaint": 12116, "Ġeating": 12117, "Ġtar": 12118, "_task": 12119, "Ġopts": 12120, "(to": 12121, "Pass": 12122, "Ġplastic": 12123, "tility": 12124, "ĠWin": 12125, ".preventDefault": 12126, "pile": 12127, "ĠGar": 12128, "Ġquantity": 12129, "_last": 12130, "Ġgreatest": 12131, "Dao": 12132, "_DIS": 12133, "ĠUsed": 12134, "ĠHP": 12135, "riting": 12136, "SION": 12137, "blue": 12138, "domain": 12139, "Ġscores": 12140, "Normal": 12141, "_admin": 12142, "ĠASSERT": 12143, "Then": 12144, "***": 12145, "dist": 12146, "lon": 12147, "Ġhate": 12148, "shal": 12149, "ImageView": 12150, "database": 12151, "Ġpand": 12152, "Ġlogic": 12153, "=false": 12154, "bg": 12155, "ĠConfiguration": 12156, "Ġnur": 12157, "OG": 12158, "Ġmarried": 12159, ":+": 12160, "Ġdropped": 12161, "Ġregistration": 12162, "ultiple": 12163, "izers": 12164, "shape": 12165, ".copy": 12166, "Ġwearing": 12167, "ĠCath": 12168, "Ġdedicated": 12169, "Ġ...Ċ": 12170, "Ġadvoc": 12171, "ĠFamily": 12172, "Ġstatements": 12173, "ematic": 12174, "ampionship": 12175, "Ġmotiv": 12176, "ĠHave": 12177, "Ġblow": 12178, "Job": 12179, "cert": 12180, "_vector": 12181, "install": 12182, "ĠCOPY": 12183, "embed": 12184, "DIR": 12185, "ĠSpring": 12186, "Ġexhib": 12187, "cdn": 12188, "ĠComment": 12189, "ĠOptional": 12190, ".player": 12191, "ĠDark": 12192, "(pos": 12193, "ĠShould": 12194, "Ġcentre": 12195, "ĠGuard": 12196, "Ã³w": 12197, "Ġtrouble": 12198, "ENER": 12199, "(unsigned": 12200, "_service": 12201, "Ġns": 12202, "uling": 12203, "ĠMexico": 12204, "ĠNY": 12205, "mysql": 12206, "Ġlic": 12207, "åľ": 12208, "Mr": 12209, "-fl": 12210, "ĠCustomer": 12211, "idi": 12212, "Ġ?>ĊĊ": 12213, "rible": 12214, "Ġsizes": 12215, "_STRING": 12216, "validation": 12217, "ĠJon": 12218, "(Http": 12219, "addClass": 12220, "Nodes": 12221, "Ġfragment": 12222, "Ġspoke": 12223, "Ġwaste": 12224, "Join": 12225, "Ġillustr": 12226, "eli": 12227, "cient": 12228, "Ġaid": 12229, "Ġprosec": 12230, "'){Ċ": 12231, "Ġpassing": 12232, "Ġfaces": 12233, "Shape": 12234, "_Z": 12235, "iti": 12236, "Ġalle": 12237, "Ġrobot": 12238, "ĠĠĠĠĠĠĠĊ": 12239, "ĠSpe": 12240, "Ġreceiving": 12241, "ĠDetails": 12242, "Ġ\")": 12243, "mg": 12244, "_REF": 12245, "Ġcomparison": 12246, "*,": 12247, "ĠFound": 12248, "_session": 12249, "(U": 12250, "/F": 12251, "Ġxxx": 12252, "Network": 12253, "ders": 12254, "Ġcapture": 12255, "Ġcorre": 12256, "ĠLtd": 12257, "ĠAdv": 12258, "[@": 12259, "Ġclip": 12260, "Mill": 12261, "ĠProfile": 12262, "Ġendif": 12263, "Ġoblig": 12264, "describe": 12265, ".element": 12266, "riterion": 12267, "LD": 12268, "ered": 12269, "Ġfavour": 12270, "score": 12271, "ĠFilter": 12272, "attributes": 12273, "Ġchecks": 12274, "Inflater": 12275, "ĠPlus": 12276, "Ġscientific": 12277, "Ġprivacy": 12278, "Head": 12279, "Ġfeat": 12280, "Ġdegrees": 12281, "ĠPale": 12282, ";\">": 12283, "Ġfilms": 12284, "ĠAudio": 12285, "ĠTag": 12286, "ĠEnergy": 12287, "itar": 12288, "parator": 12289, "Ġfellow": 12290, "Ġevt": 12291, "ĠTri": 12292, "ĠDAM": 12293, "cloud": 12294, "ĠPassword": 12295, "ĠDemocrats": 12296, "ĠAcad": 12297, "$lang": 12298, "Ġreb": 12299, "())ĊĊ": 12300, "ĠBur": 12301, "readcr": 12302, "Ġhex": 12303, "Console": 12304, "ctl": 12305, "ousel": 12306, "ĠWilliam": 12307, "Ġaz": 12308, "_PORT": 12309, "Ġpractices": 12310, "Ġanywhere": 12311, "ĠPosition": 12312, "Ġ->Ċ": 12313, "iams": 12314, ".username": 12315, "placeholder": 12316, "Ġoder": 12317, "ĠSecretary": 12318, "ĠiT": 12319, "mond": 12320, "events": 12321, "?âĢĿ": 12322, ".Sub": 12323, "Ġattached": 12324, "ĠnÃ£o": 12325, "Ġestate": 12326, ".action": 12327, "Ġfigures": 12328, "Ġ});čĊ": 12329, "Ġsubscri": 12330, ".tag": 12331, "nam": 12332, ".plot": 12333, "noon": 12334, "liament": 12335, "Character": 12336, ".tab": 12337, "Ġwinter": 12338, "ĠVariable": 12339, "Ġtrees": 12340, "Ġproud": 12341, "(V": 12342, "_load": 12343, "Ġhier": 12344, "ĠEcon": 12345, "Ġfd": 12346, "Ġvictims": 12347, "Rest": 12348, "iana": 12349, "Ġfake": 12350, ".Println": 12351, "Ġstrlen": 12352, "Ġsad": 12353, "Ġble": 12354, "Prot": 12355, "Ġbuttons": 12356, "Ġtelevision": 12357, "Ġlogo": 12358, "extension": 12359, "ĉj": 12360, "stein": 12361, "aciones": 12362, "Ġ\"\"\"ĊĊ": 12363, "Ġsimp": 12364, "Ġrecorded": 12365, "Ġbrings": 12366, "Ġprincipal": 12367, "Ġfees": 12368, "(source": 12369, "kdir": 12370, "Ġutils": 12371, "Ġcorrectly": 12372, "fil": 12373, "Ġwel": 12374, "Pair": 12375, "-button": 12376, "scale": 12377, "verify": 12378, "[c": 12379, "Ġ---": 12380, "Ġescape": 12381, "ikes": 12382, "LowerCase": 12383, "ician": 12384, "Ġchapter": 12385, "ĠTYPE": 12386, "Ġshadow": 12387, "Ġawesome": 12388, "WE": 12389, "elif": 12390, "Ġlambda": 12391, "Ġdistinct": 12392, "Ġbare": 12393, "-off": 12394, "Ġcolour": 12395, ".appendChild": 12396, "olec": 12397, "aga": 12398, ".fill": 12399, "ĉsuper": 12400, "Ġadj": 12401, "(position": 12402, ".getItem": 12403, "Short": 12404, "Ġtotally": 12405, "VD": 12406, "ĠTre": 12407, "_ep": 12408, "vements": 12409, "ĠSolution": 12410, "Ġfundament": 12411, "Follow": 12412, "Ġfacility": 12413, "Ġhappening": 12414, "OF": 12415, ".textBox": 12416, "Span": 12417, "ĠÂ«": 12418, "iden": 12419, "Ġexceed": 12420, "(parent": 12421, "Ġcp": 12422, "ç»": 12423, "Ġhasn": 12424, "Ġpri": 12425, "Ġconsequ": 12426, "nen": 12427, "ĠINTO": 12428, "Ignore": 12429, "ĠFuture": 12430, "Ġcarbon": 12431, "ĠSteel": 12432, "fmt": 12433, "okie": 12434, "Ġspl": 12435, "(title": 12436, "-info": 12437, "Ġdeals": 12438, "Ġfixture": 12439, "ea": 12440, "Div": 12441, "Ġtested": 12442, "_return": 12443, ")ĊĊĊĊ": 12444, "upported": 12445, "ĠCook": 12446, "Ġpaying": 12447, "ĠIll": 12448, "Ġarrested": 12449, "ĠPrime": 12450, "_callback": 12451, ">,Ċ": 12452, "driver": 12453, "Once": 12454, "abb": 12455, "_bytes": 12456, "ĠSets": 12457, "(Object": 12458, "Ġcc": 12459, "Ġshell": 12460, "alo": 12461, ");//": 12462, "(log": 12463, "ctors": 12464, ")</": 12465, "Ġneighborhood": 12466, "ailability": 12467, "vol": 12468, "Ġyouth": 12469, "Ġtechniques": 12470, "ĠSchema": 12471, "uh": 12472, "mente": 12473, "Ġrepository": 12474, "imm": 12475, "Ġcookie": 12476, "JS": 12477, "ovies": 12478, ":{": 12479, "Complete": 12480, "Since": 12481, "Ġlaugh": 12482, "_BO": 12483, "enable": 12484, "ĠDoes": 12485, "ĠWalk": 12486, "what": 12487, "kes": 12488, "Ġmultip": 12489, "iments": 12490, "eur": 12491, "Ġvictory": 12492, "Generator": 12493, "ĠMos": 12494, "rovers": 12495, "Ġcompute": 12496, "Ġproviders": 12497, "ĠMedic": 12498, "LP": 12499, "_CONFIG": 12500, "Ġveter": 12501, "sters": 12502, "_window": 12503, "umeric": 12504, "ĉĉĉĉĉĊ": 12505, ".Response": 12506, "Ġreplaced": 12507, ".root": 12508, "-free": 12509, "-container": 12510, "Ġmatching": 12511, "ĠEditor": 12512, "=${": 12513, "ĠSaf": 12514, "Ġsind": 12515, "(buffer": 12516, "åĩ": 12517, ".edu": 12518, ")];Ċ": 12519, "ĠNFL": 12520, "aya": 12521, "Ġdogs": 12522, "Ġdesire": 12523, "ĠMiddle": 12524, "Cart": 12525, "Theme": 12526, "Ġmob": 12527, "Ġdisplayed": 12528, "igit": 12529, "Ġadults": 12530, "\"\"\"": 12531, "Ġdelivered": 12532, "visible": 12533, "\":{Ċ": 12534, "<<<": 12535, "ĠGO": 12536, "scroll": 12537, "xE": 12538, "Ġassigned": 12539, "ĠBool": 12540, "Ġwp": 12541, "Ġcombat": 12542, "ĠHaw": 12543, ".-": 12544, "Ġsupporting": 12545, ".Content": 12546, "ircraft": 12547, "Ġspin": 12548, "ĠCR": 12549, ".my": 12550, "à¥": 12551, "tpl": 12552, "Ġspaces": 12553, "?,": 12554, "ĠSyria": 12555, "Ġpatterns": 12556, "-box": 12557, "Ġframework": 12558, "/%": 12559, "(long": 12560, "Ġteaching": 12561, "ARNING": 12562, "_keys": 12563, "Ġtables": 12564, "UNC": 12565, "inations": 12566, "-weight": 12567, "radio": 12568, "ĠPac": 12569, ".server": 12570, ".CharField": 12571, "ring": 12572, "Ġquote": 12573, "anna": 12574, "Ġwerden": 12575, "Ġcream": 12576, "Ġmachines": 12577, "-k": 12578, "Ġstim": 12579, "ĠStock": 12580, "rick": 12581, "Ġimportance": 12582, "rx": 12583, "Ãµes": 12584, "Ġstroke": 12585, "agra": 12586, "Ġtaste": 12587, "ĠDEBUG": 12588, "Thanks": 12589, "ĠRequired": 12590, "ova": 12591, "Media": 12592, "ĠsiÄĻ": 12593, "(base": 12594, "posts": 12595, "ĠfileName": 12596, "Checked": 12597, "Ġinterrupt": 12598, "Ġ()Ċ": 12599, "python": 12600, "pair": 12601, "Ġcircle": 12602, "Ġiniti": 12603, "_stream": 12604, "Ġcompreh": 12605, "learn": 12606, "Public": 12607, "Ġhumans": 12608, "Ġbringing": 12609, "ographic": 12610, "_layer": 12611, "-like": 12612, "upportInitialize": 12613, "idebar": 12614, "Ġvotes": 12615, "Ġdesired": 12616, "Mask": 12617, "Ġrelation": 12618, ".Instance": 12619, "Help": 12620, "Ġinspir": 12621, "ĠMono": 12622, "ViewModel": 12623, "ometimes": 12624, "ĠbackgroundColor": 12625, "Ġrotation": 12626, "Ġmari": 12627, "/test": 12628, "INSERT": 12629, "Star": 12630, "phy": 12631, "Ids": 12632, "_GET": 12633, "Ġincreases": 12634, "_close": 12635, "_FORM": 12636, "Ġ[âĢ¦]ĊĊ": 12637, "aza": 12638, "TEXT": 12639, "ĠÃ¤": 12640, "ĠVan": 12641, "Ġlights": 12642, "ĠGuide": 12643, "Ġdates": 12644, ".Command": 12645, "aman": 12646, "Ġpaths": 12647, ".edit": 12648, "ĉadd": 12649, "dx": 12650, "Ġreaction": 12651, "ĠBeach": 12652, ".getMessage": 12653, "Environment": 12654, "interest": 12655, "Ġminister": 12656, "Ġreaders": 12657, "ĉF": 12658, "Ġdomestic": 12659, "Ġfiled": 12660, "City": 12661, "Ġmapping": 12662, "ĠDES": 12663, "Ġrepair": 12664, "tics": 12665, "ixture": 12666, "Ġnombre": 12667, ".ISupportInitialize": 12668, "zo": 12669, ".IsNullOr": 12670, "ĠCarolina": 12671, "ĠDer": 12672, "ĠEVENT": 12673, "Ġgest": 12674, "Ġhist": 12675, "resources": 12676, "Ġorphan": 12677, ".Are": 12678, "ĠInvest": 12679, "REFERRED": 12680, ".Logger": 12681, "ĠRoman": 12682, "Ġcultural": 12683, "feature": 12684, "pts": 12685, "bt": 12686, "Ġdot": 12687, "Ġdiam": 12688, "uspend": 12689, "_access": 12690, "(){čĊ": 12691, "Ġsurprise": 12692, "abil": 12693, "Ġvirt": 12694, "Ġbomb": 12695, "aron": 12696, "_IS": 12697, "Ġvast": 12698, "Real": 12699, "epend": 12700, "icted": 12701, "Ġpicked": 12702, "ĠFL": 12703, "ĠRepublicans": 12704, ".zeros": 12705, "Pressed": 12706, "sup": 12707, ".Core": 12708, "Microsoft": 12709, "services": 12710, "agic": 12711, "iveness": 12712, "Ġpdf": 12713, "Ġroles": 12714, "ras": 12715, "Ġindustrial": 12716, "Ġfacilities": 12717, "è¡": 12718, "Ġni": 12719, "Ġba": 12720, "Ġcls": 12721, "ĉB": 12722, "Customer": 12723, "Ġimagine": 12724, "Ġexports": 12725, "OutputStream": 12726, "Ġmad": 12727, "(de": 12728, "){ĊĊ": 12729, "Ġfro": 12730, "hus": 12731, "Ġcommittee": 12732, ",x": 12733, "Ġdivision": 12734, "(client": 12735, "(java": 12736, "optional": 12737, ".Equal": 12738, "ĠPhys": 12739, "ingu": 12740, "Ġsync": 12741, "ĠNa": 12742, "}}</": 12743, "OLUM": 12744, "itÃ©": 12745, "Ġidentifier": 12746, "owed": 12747, "Ġextent": 12748, "Ġhur": 12749, "VA": 12750, "clar": 12751, "Ġedges": 12752, "Criteria": 12753, "Ġindeed": 12754, "inherit": 12755, "ĠNight": 12756, "Ġreporting": 12757, "Ġencounter": 12758, "Ġkinds": 12759, "_pred": 12760, "Ġconsidering": 12761, ".(": 12762, "Ġprotein": 12763, "Typ": 12764, "gricult": 12765, "ĠBall": 12766, "@Component": 12767, "ĠEss": 12768, "ĠRub": 12769, "ulp": 12770, "ĠĠĠĠĠĠĠĠĠĠĠĠĠĠĠĠĠĠĠĠĠĠĠĠĠĠĠĠĠĠĠĠĠĠĠĠĠĠĠĠ": 12771, "itud": 12772, ".attr": 12773, "iente": 12774, "Ġspell": 12775, "ĠJoe": 12776, "ENTER": 12777, "_host": 12778, "itan": 12779, "Ġmatters": 12780, "Ġemergency": 12781, "uated": 12782, "ĠChat": 12783, "={'": 12784, "contri": 12785, "arker": 12786, "æĪĲ": 12787, "iper": 12788, "Ġscheme": 12789, "(stderr": 12790, "Ġ*(": 12791, "ceiver": 12792, ".column": 12793, "Ġmarked": 12794, "_ATTR": 12795, "Ġbodies": 12796, "ĠIMPLIED": 12797, "Gap": 12798, "ĠPOST": 12799, "Ġcorporate": 12800, "Ġdimension": 12801, "Ġcontrast": 12802, "erview": 12803, "ĠERROR": 12804, "Ġcapable": 12805, "Ġadvertising": 12806, "urchase": 12807, "ĠPA": 12808, "ĠFrancisco": 12809, "Ġfacing": 12810, "ãĢĮ": 12811, "git": 12812, "Ġbeer": 12813, "Ġsky": 12814, "download": 12815, "ĠCur": 12816, "mc": 12817, "anny": 12818, ".floor": 12819, "Ġcriteria": 12820, "ĠparseInt": 12821, "`,Ċ": 12822, "Ġaspect": 12823, "Ġbundle": 12824, "Could": 12825, "Ġtank": 12826, "-id": 12827, "Ġhurt": 12828, "Ġbroadcast": 12829,
[...]
